{
  "version": "1.0",
  "truncation": null,
  "padding": null,
  "added_tokens": [
    {
      "id": 1,
      "content": "[UNK]",
      "single_word": false,
      "lstrip": false,
      "rstrip": false,
      "normalized": false,
      "special": true
    },
    {
      "id": 2,
      "content": "[CLS]",
      "single_word": false,
      "lstrip": false,
      "rstrip": false,
      "normalized": false,
      "special": true
    },
    {
      "id": 3,
      "content": "[SEP]",
      "single_word": false,
      "lstrip": false,
      "rstrip": false,
      "normalized": false,
      "special": true
    },
    {
      "id": 4,
      "content": "[PAD]",
      "single_word": false,
      "lstrip": false,
      "rstrip": false,
      "normalized": false,
      "special": true
    },
    {
      "id": 5,
      "content": "[MASK]",
      "single_word": false,
      "lstrip": false,
      "rstrip": false,
      "normalized": false,
      "special": true
    }
  ],
  "normalizer": {
    "type": "NFKC"
  },
  "pre_tokenizer": {
    "type": "Whitespace"
  },
  "post_processor": null,
  "decoder": null,
  "model": {
    "type": "Unigram",
    "unk_id": 0,
    "vocab": [
      [
        "<UNK>",
        0.0
      ],
      [
        "[UNK]",
        0.0
      ],
      [
        "[CLS]",
        0.0
      ],
      [
        "[SEP]",
        0.0
      ],
      [
        "[PAD]",
        0.0
      ],
      [
        "[MASK]",
        0.0
      ],
      [
        "、",
        -3.294205406458115
      ],
      [
        "。",
        -3.6108305526238738
      ],
      [
        "の",
        -3.639790055133844
      ],
      [
        ")",
        -4.068404494037445
      ],
      [
        "(",
        -4.140688678455593
      ],
      [
        "は",
        -4.370986440732235
      ],
      [
        "・",
        -4.390435233078641
      ],
      [
        "に",
        -4.456763509002766
      ],
      [
        "を",
        -4.483986036209682
      ],
      [
        "が",
        -4.50172882877294
      ],
      [
        "-",
        -4.628214257820204
      ],
      [
        "で",
        -4.962954980953715
      ],
      [
        "と",
        -5.061420189790509
      ],
      [
        "「",
        -5.128963348266293
      ],
      [
        "」",
        -5.230217272676638
      ],
      [
        ":",
        -5.4227028806740165
      ],
      [
        "『",
        -5.637795785721817
      ],
      [
        "した",
        -5.685753168308464
      ],
      [
        "から",
        -5.80308219506094
      ],
      [
        "』",
        -5.830568621398902
      ],
      [
        "し",
        -5.84952754417677
      ],
      [
        ".",
        -5.991299024505091
      ],
      [
        "する",
        -6.016062246079917
      ],
      [
        "や",
        -6.071694232780976
      ],
      [
        "も",
        -6.097388321881196
      ],
      [
        "1",
        -6.107325055272337
      ],
      [
        "である",
        -6.141858534379878
      ],
      [
        "2",
        -6.152677358213227
      ],
      [
        "ス",
        -6.280843742940407
      ],
      [
        "として",
        -6.326420491984651
      ],
      [
        "大",
        -6.34113261915876
      ],
      [
        ",",
        -6.348594882254373
      ],
      [
        "た",
        -6.405201162825476
      ],
      [
        "る",
        -6.4301046012914895
      ],
      [
        "3",
        -6.433849304453943
      ],
      [
        "では",
        -6.481750719190586
      ],
      [
        "な",
        -6.498387715547249
      ],
      [
        "s",
        -6.577106526544231
      ],
      [
        "/",
        -6.578357485103838
      ],
      [
        "には",
        -6.5973085958023105
      ],
      [
        "4",
        -6.606677024167428
      ],
      [
        "された",
        -6.615147236685752
      ],
      [
        "市",
        -6.639886889033864
      ],
      [
        "ト",
        -6.6412672675866045
      ],
      [
        "子",
        -6.70050000386035
      ],
      [
        "ア",
        -6.7121602281223165
      ],
      [
        "い",
        -6.732714970728255
      ],
      [
        "日本",
        -6.746662757730766
      ],
      [
        "ク",
        -6.751219361961537
      ],
      [
        "人",
        -6.755819238987286
      ],
      [
        "一",
        -6.802087030573841
      ],
      [
        "S",
        -6.8091438085952
      ],
      [
        "ラ",
        -6.815504890492832
      ],
      [
        "している",
        -6.816205214294911
      ],
      [
        "山",
        -6.850833822475863
      ],
      [
        "町",
        -6.860268931202079
      ],
      [
        "A",
        -6.869783829332446
      ],
      [
        "||",
        -6.874127589062619
      ],
      [
        "り",
        -6.8830649217582085
      ],
      [
        "して",
        -6.88492146312513
      ],
      [
        "B",
        -6.88504766623905
      ],
      [
        "生",
        -6.88568935428326
      ],
      [
        "ド",
        -6.90794012697517
      ],
      [
        "この",
        -6.909474981701392
      ],
      [
        "日",
        -6.922160661161259
      ],
      [
        "中",
        -6.925066462914744
      ],
      [
        "田",
        -6.928468535132534
      ],
      [
        "ズ",
        -6.929384575214959
      ],
      [
        "か",
        -6.9367254097539455
      ],
      [
        "本",
        -6.9523572588090925
      ],
      [
        "5",
        -6.9543814328033875
      ],
      [
        "\"",
        -6.972272134363985
      ],
      [
        "リ",
        -6.977080695143723
      ],
      [
        "て",
        -6.9914401916452835
      ],
      [
        "という",
        -6.993723157821115
      ],
      [
        "C",
        -6.995200502395097
      ],
      [
        "川",
        -7.006875178254358
      ],
      [
        "M",
        -7.012104932326178
      ],
      [
        "また",
        -7.013154341413818
      ],
      [
        "く",
        -7.02022300493339
      ],
      [
        "駅",
        -7.021543676206843
      ],
      [
        "その",
        -7.027434022049977
      ],
      [
        "カ",
        -7.034580487804407
      ],
      [
        "部",
        -7.041846316060015
      ],
      [
        "|",
        -7.053581237440783
      ],
      [
        "新",
        -7.055698943136704
      ],
      [
        "ル",
        -7.062260225490251
      ],
      [
        "F",
        -7.076059145593357
      ],
      [
        "線",
        -7.083044925155567
      ],
      [
        "上",
        -7.085318494514844
      ],
      [
        "マ",
        -7.091598776607897
      ],
      [
        "!",
        -7.0944559909392755
      ],
      [
        "など",
        -7.097810386398452
      ],
      [
        "ナ",
        -7.102250386609802
      ],
      [
        "T",
        -7.106834272490001
      ],
      [
        "村",
        -7.122747472729717
      ],
      [
        "6",
        -7.124054276016279
      ],
      [
        "者",
        -7.134163985851245
      ],
      [
        "0",
        -7.139480585465835
      ],
      [
        "P",
        -7.144347416010257
      ],
      [
        "タ",
        -7.170245937649478
      ],
      [
        "名",
        -7.189834122732833
      ],
      [
        "国",
        -7.1899076753653155
      ],
      [
        "コ",
        -7.193131190123392
      ],
      [
        "され",
        -7.196372225106337
      ],
      [
        "される",
        -7.206390315870408
      ],
      [
        "ロ",
        -7.220454607220805
      ],
      [
        "長",
        -7.227839410448697
      ],
      [
        "G",
        -7.2501447726301915
      ],
      [
        "き",
        -7.25541199992896
      ],
      [
        "D",
        -7.258622440638554
      ],
      [
        "三",
        -7.263160779461767
      ],
      [
        "イ",
        -7.2665938371854235
      ],
      [
        "家",
        -7.267553926681309
      ],
      [
        "地",
        -7.28082002720118
      ],
      [
        "オ",
        -7.283420847579832
      ],
      [
        "バ",
        -7.290859194635477
      ],
      [
        "シ",
        -7.297723307222146
      ],
      [
        "ミ",
        -7.299489867027157
      ],
      [
        "東",
        -7.299584884104233
      ],
      [
        "されている",
        -7.300415701946632
      ],
      [
        "日本の",
        -7.30055036651526
      ],
      [
        "ている",
        -7.3026580662988305
      ],
      [
        "E",
        -7.302789195651712
      ],
      [
        "7",
        -7.303938795467186
      ],
      [
        "注",
        -7.305996117002788
      ],
      [
        "K",
        -7.308304931368019
      ],
      [
        "まで",
        -7.325496420757453
      ],
      [
        "内",
        -7.327726714219651
      ],
      [
        "お",
        -7.329248315750002
      ],
      [
        "下",
        -7.332919422050569
      ],
      [
        "W",
        -7.334903220617061
      ],
      [
        "脚",
        -7.335014205866308
      ],
      [
        "西",
        -7.336262601264929
      ],
      [
        "み",
        -7.338684706764711
      ],
      [
        "小",
        -7.342981071800882
      ],
      [
        "m",
        -7.342997891328151
      ],
      [
        "道",
        -7.346101499670771
      ],
      [
        "水",
        -7.348116125224044
      ],
      [
        "N",
        -7.349636335307991
      ],
      [
        "った",
        -7.358691801855297
      ],
      [
        "L",
        -7.3614172645654214
      ],
      [
        "法",
        -7.364589963322098
      ],
      [
        "野",
        -7.36464531897788
      ],
      [
        "高",
        -7.368394273916566
      ],
      [
        "大学",
        -7.369933254580998
      ],
      [
        "原",
        -7.370234565735537
      ],
      [
        "島",
        -7.371167169725323
      ],
      [
        "=",
        -7.372199775627502
      ],
      [
        "による",
        -7.37639818405078
      ],
      [
        "〜",
        -7.3765804874154774
      ],
      [
        "より",
        -7.37660646278705
      ],
      [
        "H",
        -7.377555651668283
      ],
      [
        "エ",
        -7.377720744041582
      ],
      [
        "』(",
        -7.381261411548525
      ],
      [
        "元",
        -7.383450676687994
      ],
      [
        "R",
        -7.3840724834087865
      ],
      [
        "前",
        -7.389183727094295
      ],
      [
        "戦",
        -7.395772030114694
      ],
      [
        "8",
        -7.398478932785677
      ],
      [
        "へ",
        -7.404022196497781
      ],
      [
        "レ",
        -7.404809080365062
      ],
      [
        "ム",
        -7.406501256455067
      ],
      [
        "10",
        -7.40756390324516
      ],
      [
        "ノ",
        -7.408409506569374
      ],
      [
        "ら",
        -7.40840985063835
      ],
      [
        "役",
        -7.413564078088635
      ],
      [
        "フ",
        -7.416472340556481
      ],
      [
        "リー",
        -7.4268021424108905
      ],
      [
        "後",
        -7.427713401281256
      ],
      [
        "により",
        -7.434515000222875
      ],
      [
        "となる",
        -7.441046937483021
      ],
      [
        "同",
        -7.45188820660697
      ],
      [
        "サ",
        -7.4610729604292985
      ],
      [
        "会",
        -7.463514003237137
      ],
      [
        "社",
        -7.467213414201211
      ],
      [
        "となった",
        -7.468215241254715
      ],
      [
        "」(",
        -7.470602639850645
      ],
      [
        "南",
        -7.471682092712706
      ],
      [
        "代",
        -7.478886741582201
      ],
      [
        "キ",
        -7.482721300561703
      ],
      [
        "ブ",
        -7.482777309945018
      ],
      [
        "分",
        -7.490998119571204
      ],
      [
        "出",
        -7.49809644890429
      ],
      [
        "郡",
        -7.5022268158190855
      ],
      [
        "ダ",
        -7.508918651587026
      ],
      [
        "北",
        -7.512860890271638
      ],
      [
        "手",
        -7.519866191444519
      ],
      [
        "関連",
        -7.520973406369992
      ],
      [
        "ン",
        -7.522098088529665
      ],
      [
        "つ",
        -7.523250513606206
      ],
      [
        "外部リンク",
        -7.524706471079611
      ],
      [
        "数",
        -7.525748993708033
      ],
      [
        "によって",
        -7.5352716490727545
      ],
      [
        "年",
        -7.537806849443841
      ],
      [
        "って",
        -7.547262169234886
      ],
      [
        "学",
        -7.5509408394364605
      ],
      [
        "9",
        -7.556677119066713
      ],
      [
        "平",
        -7.557322908474733
      ],
      [
        "化",
        -7.557379425537164
      ],
      [
        "東京",
        -7.558351620048189
      ],
      [
        "す",
        -7.559203925483148
      ],
      [
        "美",
        -7.567130125618313
      ],
      [
        "ジ",
        -7.567380100718154
      ],
      [
        "用",
        -7.581383660542562
      ],
      [
        "デ",
        -7.588314919021492
      ],
      [
        "ツ",
        -7.596453597503903
      ],
      [
        "18",
        -7.599441924513057
      ],
      [
        "行",
        -7.600315133481818
      ],
      [
        "していた",
        -7.600857870633133
      ],
      [
        "性",
        -7.601619954990097
      ],
      [
        "ウ",
        -7.607184833440744
      ],
      [
        "J",
        -7.611571406813736
      ],
      [
        "金",
        -7.6117168977209015
      ],
      [
        "ニ",
        -7.613253194302731
      ],
      [
        "t",
        -7.614472878204996
      ],
      [
        "神",
        -7.615262022173356
      ],
      [
        "であり",
        -7.618669846754914
      ],
      [
        "19",
        -7.627155984839765
      ],
      [
        "O",
        -7.629293916799472
      ],
      [
        "チ",
        -7.637525418322873
      ],
      [
        "y",
        -7.63784282882896
      ],
      [
        "さ",
        -7.641292386879432
      ],
      [
        "的",
        -7.6498250751964285
      ],
      [
        "正",
        -7.65217438924056
      ],
      [
        "時",
        -7.652555174669246
      ],
      [
        "う",
        -7.657838759358693
      ],
      [
        "がある",
        -7.661777372445579
      ],
      [
        "ため",
        -7.662220381137091
      ],
      [
        "作品",
        -7.663204348562571
      ],
      [
        "全",
        -7.665184163804712
      ],
      [
        "in",
        -7.666896870892133
      ],
      [
        "への",
        -7.667862161269985
      ],
      [
        "区",
        -7.669729567210679
      ],
      [
        "見",
        -7.674471532594625
      ],
      [
        "放送",
        -7.6765199054285915
      ],
      [
        "二",
        -7.682092255071847
      ],
      [
        "ま",
        -7.682415933411493
      ],
      [
        "立",
        -7.682894815822692
      ],
      [
        "号",
        -7.686006283625183
      ],
      [
        "州",
        -7.686983533714095
      ],
      [
        "ネ",
        -7.687433836235927
      ],
      [
        "目",
        -7.688729127952797
      ],
      [
        "所",
        -7.691250141597102
      ],
      [
        "メ",
        -7.6915421493948255
      ],
      [
        "であった",
        -7.692675391327654
      ],
      [
        "木",
        -7.699045178577219
      ],
      [
        "al",
        -7.71976605864281
      ],
      [
        "マン",
        -7.724516988668277
      ],
      [
        "ガ",
        -7.726925962098289
      ],
      [
        "グ",
        -7.727131994639716
      ],
      [
        "版",
        -7.730626921171394
      ],
      [
        "間",
        -7.73283354250238
      ],
      [
        "映画",
        -7.736485335509066
      ],
      [
        "こ",
        -7.740085138610176
      ],
      [
        "I",
        -7.740110075928309
      ],
      [
        "王",
        -7.740995020381245
      ],
      [
        "ハ",
        -7.747785161815655
      ],
      [
        "海",
        -7.748417317870283
      ],
      [
        "体",
        -7.749424095356087
      ],
      [
        "あ",
        -7.750394865683875
      ],
      [
        "ッ",
        -7.753000253506142
      ],
      [
        "U",
        -7.755268950976893
      ],
      [
        "文",
        -7.755636837427655
      ],
      [
        "的な",
        -7.763650677198042
      ],
      [
        "外",
        -7.764738975130147
      ],
      [
        "ザ",
        -7.76629252278487
      ],
      [
        "城",
        -7.7664835619838914
      ],
      [
        "項目",
        -7.776338539129965
      ],
      [
        "ー",
        -7.77768221496393
      ],
      [
        "e",
        -7.7791867366963015
      ],
      [
        "人物",
        -7.782331811031909
      ],
      [
        "機",
        -7.783095900263051
      ],
      [
        "V",
        -7.787778142482312
      ],
      [
        "和",
        -7.789017495551212
      ],
      [
        "ビ",
        -7.802352631922371
      ],
      [
        "光",
        -7.804340295951102
      ],
      [
        "度",
        -7.805946021110335
      ],
      [
        "天",
        -7.813484287589899
      ],
      [
        "物",
        -7.816896308959857
      ],
      [
        "作",
        -7.817778776883928
      ],
      [
        "車",
        -7.8194050799796635
      ],
      [
        "曲",
        -7.819646946364935
      ],
      [
        "え",
        -7.820066713796631
      ],
      [
        "イン",
        -7.82842522621012
      ],
      [
        "場",
        -7.832072585322079
      ],
      [
        "面",
        -7.832794567513545
      ],
      [
        "プ",
        -7.836346789370811
      ],
      [
        "明",
        -7.838046498524907
      ],
      [
        "無",
        -7.842382285797633
      ],
      [
        "ディ",
        -7.843078061416962
      ],
      [
        "事",
        -7.84474595081139
      ],
      [
        "パ",
        -7.845451213242043
      ],
      [
        "ティ",
        -7.85152504245962
      ],
      [
        "モ",
        -7.852938744072013
      ],
      [
        "語",
        -7.85412202017026
      ],
      [
        "ット",
        -7.856801311170807
      ],
      [
        "テ",
        -7.858793668157476
      ],
      [
        "石",
        -7.859548242154213
      ],
      [
        "寺",
        -7.862305824986086
      ],
      [
        "方",
        -7.865146069630523
      ],
      [
        "軍",
        -7.869041601810144
      ],
      [
        "17",
        -7.8771424513880035
      ],
      [
        "等",
        -7.878174857542998
      ],
      [
        "力",
        -7.8807790355450535
      ],
      [
        "にも",
        -7.880991209049952
      ],
      [
        "れ",
        -7.889169789403894
      ],
      [
        "型",
        -7.88944194998728
      ],
      [
        "er",
        -7.891012741416269
      ],
      [
        "世界",
        -7.891693439976066
      ],
      [
        "だった",
        -7.892112134513333
      ],
      [
        "c",
        -7.892501906748349
      ],
      [
        "井",
        -7.895763115628805
      ],
      [
        "~",
        -7.899835709737996
      ],
      [
        "監督",
        -7.902278381477242
      ],
      [
        "点",
        -7.904409048651836
      ],
      [
        "番組",
        -7.910524074445343
      ],
      [
        "p",
        -7.913528686492519
      ],
      [
        "20",
        -7.916956026909366
      ],
      [
        "Y",
        -7.917057387311628
      ],
      [
        "アン",
        -7.917939221180431
      ],
      [
        "12",
        -7.920220007236157
      ],
      [
        "口",
        -7.920317496190142
      ],
      [
        "でも",
        -7.920422092112275
      ],
      [
        "n",
        -7.925115330706891
      ],
      [
        "真",
        -7.926152085722533
      ],
      [
        "科",
        -7.932381485498071
      ],
      [
        "発",
        -7.932576364187305
      ],
      [
        "月",
        -7.937153277935961
      ],
      [
        "a",
        -7.9397259071059345
      ],
      [
        "ゲーム",
        -7.94522225942622
      ],
      [
        "賞",
        -7.946933731480117
      ],
      [
        "谷",
        -7.947920835685945
      ],
      [
        "セ",
        -7.952874702093471
      ],
      [
        "公",
        -7.953925876266423
      ],
      [
        "局",
        -7.955302865706523
      ],
      [
        "ない",
        -7.955419605354676
      ],
      [
        "書",
        -7.9597801744389045
      ],
      [
        "発売",
        -7.959923204090979
      ],
      [
        "カー",
        -7.9633945204098975
      ],
      [
        "こと",
        -7.965121468324629
      ],
      [
        "系",
        -7.96704852427338
      ],
      [
        "回",
        -7.968913229618812
      ],
      [
        "ゴ",
        -7.972598355370037
      ],
      [
        "じ",
        -7.977759428916739
      ],
      [
        "白",
        -7.979901145850688
      ],
      [
        "め",
        -7.985443965456977
      ],
      [
        "屋",
        -7.9880206588241
      ],
      [
        "旧",
        -7.991927535532572
      ],
      [
        "しかし",
        -7.993131041538765
      ],
      [
        "シリーズ",
        -7.996242083592561
      ],
      [
        "15",
        -7.998424263530497
      ],
      [
        "気",
        -8.001569404195434
      ],
      [
        "声",
        -8.005472411705657
      ],
      [
        "宮",
        -8.007439139699533
      ],
      [
        "ラー",
        -8.007784494957937
      ],
      [
        "重",
        -8.008142025290235
      ],
      [
        "ん",
        -8.009608627569067
      ],
      [
        "その後",
        -8.009951413982984
      ],
      [
        "アル",
        -8.011033587301132
      ],
      [
        "式",
        -8.01410462748301
      ],
      [
        "形",
        -8.016414797389988
      ],
      [
        "いた",
        -8.0178262390216
      ],
      [
        "台",
        -8.019021547345021
      ],
      [
        "初",
        -8.020674951736192
      ],
      [
        "流",
        -8.021272548647355
      ],
      [
        "わ",
        -8.022320723999604
      ],
      [
        "16",
        -8.022796452494731
      ],
      [
        "X",
        -8.024201792124773
      ],
      [
        "不",
        -8.02820187914022
      ],
      [
        "ター",
        -8.032506045435413
      ],
      [
        "第1",
        -8.03256475287459
      ],
      [
        "との",
        -8.035264185771277
      ],
      [
        "f",
        -8.038567925064596
      ],
      [
        "だ",
        -8.040444095689752
      ],
      [
        "鉄道",
        -8.043260983989587
      ],
      [
        "第2",
        -8.045506900876243
      ],
      [
        "2010年",
        -8.045945638717235
      ],
      [
        "女",
        -8.04793197258791
      ],
      [
        "バー",
        -8.052653084589585
      ],
      [
        "'",
        -8.055336660312596
      ],
      [
        "i",
        -8.057394024518464
      ],
      [
        "にある",
        -8.063809865454267
      ],
      [
        "ち",
        -8.06435118511563
      ],
      [
        "および",
        -8.066041001141688
      ],
      [
        "ていた",
        -8.068687559547323
      ],
      [
        "d",
        -8.069839411696968
      ],
      [
        "11",
        -8.07233621436354
      ],
      [
        "花",
        -8.073993440817523
      ],
      [
        "愛",
        -8.077769793812484
      ],
      [
        "信",
        -8.078862645328947
      ],
      [
        "勝",
        -8.080501642882371
      ],
      [
        "などの",
        -8.082594562513348
      ],
      [
        "歌",
        -8.085632742178166
      ],
      [
        "2012年",
        -8.086092415016893
      ],
      [
        "バス",
        -8.088651217163482
      ],
      [
        "入",
        -8.091636211429323
      ],
      [
        "け",
        -8.09194332282012
      ],
      [
        "馬",
        -8.092687879448608
      ],
      [
        "2011年",
        -8.098907717131599
      ],
      [
        "en",
        -8.103495191878817
      ],
      [
        "作曲",
        -8.105030422567717
      ],
      [
        "of",
        -8.105648485064346
      ],
      [
        "られた",
        -8.105758962703103
      ],
      [
        "官",
        -8.106792195072186
      ],
      [
        "テレビ",
        -8.10778831669086
      ],
      [
        "2009年",
        -8.108559133391925
      ],
      [
        "スト",
        -8.110877781276189
      ],
      [
        "男",
        -8.111078464551207
      ],
      [
        "通",
        -8.111537911976347
      ],
      [
        "次",
        -8.11386887241548
      ],
      [
        "2015年",
        -8.114022176220281
      ],
      [
        "巻",
        -8.114350950867951
      ],
      [
        "2014年",
        -8.115549877637648
      ],
      [
        "2013年",
        -8.117669590015707
      ],
      [
        "武",
        -8.119004024867621
      ],
      [
        "音楽",
        -8.121694446570396
      ],
      [
        "位",
        -8.122306836250532
      ],
      [
        "2016年",
        -8.123093669841705
      ],
      [
        "&",
        -8.124911606545274
      ],
      [
        "2008年",
        -8.126750978934135
      ],
      [
        "橋",
        -8.127104349368329
      ],
      [
        "学校",
        -8.130679713746405
      ],
      [
        "っている",
        -8.13093287360648
      ],
      [
        "教育",
        -8.13126401009836
      ],
      [
        "出演",
        -8.131686531413395
      ],
      [
        "主",
        -8.132103612212958
      ],
      [
        "室",
        -8.135491954492664
      ],
      [
        "店",
        -8.138170071907762
      ],
      [
        "において",
        -8.138946767079117
      ],
      [
        "史",
        -8.140938053465726
      ],
      [
        "実",
        -8.142531594895926
      ],
      [
        "安",
        -8.143070733723478
      ],
      [
        "2007年",
        -8.14428708431307
      ],
      [
        "現",
        -8.144991519838111
      ],
      [
        "2017年",
        -8.146090663466596
      ],
      [
        "心",
        -8.146441618850721
      ],
      [
        "→",
        -8.147820135318376
      ],
      [
        "b",
        -8.149329383993058
      ],
      [
        "後に",
        -8.15548419780997
      ],
      [
        "のみ",
        -8.156388955592051
      ],
      [
        "ワ",
        -8.158949971156648
      ],
      [
        "l",
        -8.159642124722582
      ],
      [
        "13",
        -8.166051133686455
      ],
      [
        "k",
        -8.167814310478223
      ],
      [
        "2018年",
        -8.168584253707115
      ],
      [
        "2019年",
        -8.169503619140961
      ],
      [
        "にて",
        -8.172897428672163
      ],
      [
        "風",
        -8.1756770315108
      ],
      [
        "g",
        -8.176222041705667
      ],
      [
        "リン",
        -8.176596773045215
      ],
      [
        "知",
        -8.181557463143697
      ],
      [
        "組",
        -8.181963078005825
      ],
      [
        "ボ",
        -8.181965595917255
      ],
      [
        "30",
        -8.182229354270781
      ],
      [
        "ケ",
        -8.182865708248482
      ],
      [
        "む",
        -8.190003732048886
      ],
      [
        "ヤ",
        -8.192303507474513
      ],
      [
        "色",
        -8.193330215942712
      ],
      [
        "船",
        -8.195952360175347
      ],
      [
        "有",
        -8.200654331176422
      ],
      [
        "直",
        -8.200904231415693
      ],
      [
        "プロ",
        -8.200932730177547
      ],
      [
        "沢",
        -8.2025724208929
      ],
      [
        "サン",
        -8.204628501310104
      ],
      [
        "14",
        -8.20486915010141
      ],
      [
        "期",
        -8.210093022017846
      ],
      [
        "4月",
        -8.210178692708281
      ],
      [
        "2006年",
        -8.218362179459026
      ],
      [
        "津",
        -8.22256835401866
      ],
      [
        "合",
        -8.222742292760296
      ],
      [
        "となり",
        -8.223219422191628
      ],
      [
        "話",
        -8.224088452919506
      ],
      [
        "館",
        -8.225483395219362
      ],
      [
        "シュ",
        -8.227441220857155
      ],
      [
        "夫",
        -8.228609541822037
      ],
      [
        "における",
        -8.230197648053213
      ],
      [
        "ば",
        -8.231857799525175
      ],
      [
        "00",
        -8.232582098365317
      ],
      [
        "世",
        -8.233756334667728
      ],
      [
        "活動",
        -8.23443980192275
      ],
      [
        "ヒ",
        -8.237116683137145
      ],
      [
        "なお",
        -8.238240846689141
      ],
      [
        "ラン",
        -8.238299840904665
      ],
      [
        "同年",
        -8.239211423396892
      ],
      [
        "頭",
        -8.24054891956701
      ],
      [
        "編",
        -8.240875441014158
      ],
      [
        "株式会社",
        -8.2422077212688
      ],
      [
        "多",
        -8.24351244418534
      ],
      [
        "選手",
        -8.24482400617441
      ],
      [
        "ポ",
        -8.246532335664313
      ],
      [
        "出身の人物",
        -8.246786350864658
      ],
      [
        "on",
        -8.24832169126872
      ],
      [
        "両",
        -8.249093105033015
      ],
      [
        "2020年",
        -8.25144677346964
      ],
      [
        "w",
        -8.254720228903524
      ],
      [
        "着",
        -8.255194873575121
      ],
      [
        "義",
        -8.256950074040269
      ],
      [
        "成",
        -8.260261174159815
      ],
      [
        "県",
        -8.261189738965392
      ],
      [
        "ホ",
        -8.264632014978687
      ],
      [
        "地域",
        -8.264846501020969
      ],
      [
        "ソ",
        -8.268868129289627
      ],
      [
        "番",
        -8.270357754164955
      ],
      [
        "明治",
        -8.272219623772953
      ],
      [
        "ック",
        -8.27311021259549
      ],
      [
        "概要",
        -8.273607833492159
      ],
      [
        "総",
        -8.274474648406155
      ],
      [
        "情報",
        -8.275097950060943
      ],
      [
        "アメリカ",
        -8.276377554610537
      ],
      [
        "アルバム",
        -8.276532739870397
      ],
      [
        "The",
        -8.277556791217544
      ],
      [
        "r",
        -8.277567800691543
      ],
      [
        "ベ",
        -8.278170113739403
      ],
      [
        "u",
        -8.278438851348588
      ],
      [
        "とは",
        -8.278692327608121
      ],
      [
        "ロー",
        -8.281671070647905
      ],
      [
        "松",
        -8.283374045018013
      ],
      [
        "江",
        -8.284227180617435
      ],
      [
        "久",
        -8.284244160235843
      ],
      [
        "国際",
        -8.28431432136322
      ],
      [
        "的に",
        -8.289318213700346
      ],
      [
        "種",
        -8.291341256700854
      ],
      [
        "コン",
        -8.293040178496215
      ],
      [
        "h",
        -8.294739927097396
      ],
      [
        "スター",
        -8.295701342945597
      ],
      [
        "太",
        -8.295968617344743
      ],
      [
        "空",
        -8.29933441888456
      ],
      [
        "音",
        -8.303544024526945
      ],
      [
        "門",
        -8.306208791513235
      ],
      [
        "2021年",
        -8.307930000222596
      ],
      [
        "吉",
        -8.308488326950476
      ],
      [
        "2005年",
        -8.314224701014679
      ],
      [
        "集",
        -8.315804381836488
      ],
      [
        "小学校",
        -8.317520333834187
      ],
      [
        "各",
        -8.319566196330182
      ],
      [
        "%",
        -8.327656435430967
      ],
      [
        "o",
        -8.329041551263517
      ],
      [
        "ing",
        -8.331030275171504
      ],
      [
        "3月",
        -8.332175472611837
      ],
      [
        "び",
        -8.333631554101585
      ],
      [
        "文化",
        -8.335941427080162
      ],
      [
        "々",
        -8.336699819729233
      ],
      [
        "マー",
        -8.337708893382155
      ],
      [
        "※",
        -8.338638789950698
      ],
      [
        "院",
        -8.338745605704071
      ],
      [
        "試合",
        -8.33883042456963
      ],
      [
        "星",
        -8.340348585959402
      ],
      [
        "研究",
        -8.340367048027828
      ],
      [
        "古",
        -8.342680432637811
      ],
      [
        "3年",
        -8.346277519438793
      ],
      [
        "ず",
        -8.346702869753917
      ],
      [
        "作詞",
        -8.348893025204598
      ],
      [
        "政",
        -8.35214963770761
      ],
      [
        "万",
        -8.35242460303083
      ],
      [
        "について",
        -8.352572404657007
      ],
      [
        "動",
        -8.353746630153065
      ],
      [
        "できる",
        -8.356646532897015
      ],
      [
        "歴史",
        -8.357233852179665
      ],
      [
        "記",
        -8.357344117733923
      ],
      [
        "先",
        -8.358512328041858
      ],
      [
        "and",
        -8.360783587791571
      ],
      [
        "the",
        -8.361544506565483
      ],
      [
        "別",
        -8.36201275916913
      ],
      [
        "制",
        -8.365954067907518
      ],
      [
        "での",
        -8.367296085791121
      ],
      [
        "里",
        -8.372365338529544
      ],
      [
        "自",
        -8.374104511427797
      ],
      [
        "チーム",
        -8.374807255483903
      ],
      [
        "尾",
        -8.375276875031865
      ],
      [
        "le",
        -8.377597167425263
      ],
      [
        "50",
        -8.378065608523627
      ],
      [
        "ピ",
        -8.378221214412592
      ],
      [
        "2年",
        -8.378961044075808
      ],
      [
        "Z",
        -8.379323363919084
      ],
      [
        "re",
        -8.382120779691446
      ],
      [
        "大会",
        -8.383849877285783
      ],
      [
        "時間",
        -8.38472229166018
      ],
      [
        "開発",
        -8.38568920729725
      ],
      [
        "対",
        -8.38716859150457
      ],
      [
        "校",
        -8.388518090629189
      ],
      [
        "よ",
        -8.389564678996447
      ],
      [
        "隊",
        -8.39015927492201
      ],
      [
        "他",
        -8.3909284003724
      ],
      [
        "っ",
        -8.391837749476291
      ],
      [
        "理",
        -8.392446438726855
      ],
      [
        "演",
        -8.39416814137215
      ],
      [
        "春",
        -8.395062462297151
      ],
      [
        "進",
        -8.395385513947677
      ],
      [
        "ISBN",
        -8.396027692925587
      ],
      [
        "志",
        -8.396797809891416
      ],
      [
        "だが",
        -8.398129923625909
      ],
      [
        "雄",
        -8.404092951744072
      ],
      [
        "とする",
        -8.404232318352017
      ],
      [
        "an",
        -8.408568861329458
      ],
      [
        "センター",
        -8.408846877292314
      ],
      [
        "ギ",
        -8.408906507197367
      ],
      [
        "開",
        -8.411028262572467
      ],
      [
        "堂",
        -8.411527679516254
      ],
      [
        "代表",
        -8.411819995201348
      ],
      [
        "治",
        -8.413581524948766
      ],
      [
        "もの",
        -8.415529478255412
      ],
      [
        "」「",
        -8.419713015784124
      ],
      [
        "となっている",
        -8.422908357556322
      ],
      [
        "女子",
        -8.42314977867584
      ],
      [
        "事業",
        -8.423850963331585
      ],
      [
        "ひ",
        -8.425892990318443
      ],
      [
        "土",
        -8.426469891755472
      ],
      [
        "ダー",
        -8.428219326155522
      ],
      [
        "約",
        -8.428997957786503
      ],
      [
        "四",
        -8.42914826625406
      ],
      [
        "シー",
        -8.431491401704502
      ],
      [
        "グループ",
        -8.433704852210694
      ],
      [
        "+",
        -8.434181927829203
      ],
      [
        "ペ",
        -8.434727836279489
      ],
      [
        "ソン",
        -8.435797382131073
      ],
      [
        "黒",
        -8.43726560756123
      ],
      [
        "ニー",
        -8.43876249288938
      ],
      [
        "施設",
        -8.4402252375586
      ],
      [
        "第3",
        -8.441506145340679
      ],
      [
        "になる",
        -8.441887264305695
      ],
      [
        "ナー",
        -8.441973834594872
      ],
      [
        "トン",
        -8.444752164957494
      ],
      [
        "2004年",
        -8.445470644596222
      ],
      [
        "母",
        -8.44725936066178
      ],
      [
        "時代",
        -8.44843256126335
      ],
      [
        "一覧",
        -8.448694012436052
      ],
      [
        "ヴィ",
        -8.44924596110492
      ],
      [
        "広",
        -8.450560394383865
      ],
      [
        "開催",
        -8.451927124027307
      ],
      [
        "電",
        -8.452668179344833
      ],
      [
        "級",
        -8.452758830638192
      ],
      [
        "さらに",
        -8.455685576971073
      ],
      [
        "高等学校",
        -8.459000249217452
      ],
      [
        "中学校",
        -8.45988336553452
      ],
      [
        "民",
        -8.460710578473876
      ],
      [
        "んだ",
        -8.46198762461776
      ],
      [
        "ね",
        -8.462288801472742
      ],
      [
        "出典",
        -8.462800295093487
      ],
      [
        "リーグ",
        -8.463050461659986
      ],
      [
        "清",
        -8.465261147153802
      ],
      [
        "千",
        -8.46570417773687
      ],
      [
        "大阪",
        -8.466971890273063
      ],
      [
        "シーズン",
        -8.467091780291316
      ],
      [
        "中央",
        -8.46736290761818
      ],
      [
        "楽",
        -8.469825266100568
      ],
      [
        "中国",
        -8.470626023800197
      ],
      [
        "英",
        -8.472789481625082
      ],
      [
        "参考文献",
        -8.474792648278806
      ],
      [
        "赤",
        -8.4755641115688
      ],
      [
        "制作",
        -8.47605018101197
      ],
      [
        "ぶ",
        -8.477254088648028
      ],
      [
        "とも",
        -8.481705790476608
      ],
      [
        "さん",
        -8.484645800290128
      ],
      [
        "岡",
        -8.48955054396719
      ],
      [
        "及び",
        -8.489661656957072
      ],
      [
        "党",
        -8.49080727903937
      ],
      [
        "岩",
        -8.493904011393386
      ],
      [
        "伝",
        -8.495520596957165
      ],
      [
        "or",
        -8.49765831304029
      ],
      [
        "論",
        -8.499981395852185
      ],
      [
        "相",
        -8.501903873319359
      ],
      [
        "身",
        -8.501953974643907
      ],
      [
        "座",
        -8.50239978962741
      ],
      [
        "教",
        -8.504533545941774
      ],
      [
        "レン",
        -8.504965676459433
      ],
      [
        "業",
        -8.505216508918803
      ],
      [
        "加",
        -8.505686227378566
      ],
      [
        "五",
        -8.50639808081803
      ],
      [
        "林",
        -8.506817856258152
      ],
      [
        "省",
        -8.508575250790235
      ],
      [
        "2022年",
        -8.510035513876751
      ],
      [
        "せ",
        -8.510114660349549
      ],
      [
        "しており",
        -8.510470916274082
      ],
      [
        "員",
        -8.510483574566392
      ],
      [
        "編曲",
        -8.5113138926476
      ],
      [
        "達",
        -8.511620577018551
      ],
      [
        "ど",
        -8.512486526290568
      ],
      [
        "変",
        -8.515897711877141
      ],
      [
        "氏",
        -8.515939834175057
      ],
      [
        "ed",
        -8.517564902308527
      ],
      [
        "ジャ",
        -8.518125641510233
      ],
      [
        "定",
        -8.51981389426383
      ],
      [
        "使用",
        -8.520478176004865
      ],
      [
        "優勝",
        -8.521093033004803
      ],
      [
        "アニメ",
        -8.521193855939586
      ],
      [
        "事件",
        -8.521431030409527
      ],
      [
        "ライ",
        -8.52362298864344
      ],
      [
        "聖",
        -8.524449495293114
      ],
      [
        "いる",
        -8.524477555313936
      ],
      [
        "10月",
        -8.525812036810244
      ],
      [
        "th",
        -8.526114998900566
      ],
      [
        "us",
        -8.526978315204222
      ],
      [
        "関係",
        -8.527079278631344
      ],
      [
        "朝",
        -8.527799832101758
      ],
      [
        "丸",
        -8.529486844885001
      ],
      [
        "になった",
        -8.532918544835272
      ],
      [
        "転",
        -8.5341806818302
      ],
      [
        "市立",
        -8.53464205206936
      ],
      [
        "之",
        -8.537219471302455
      ],
      [
        "それ",
        -8.537252541295521
      ],
      [
        "永",
        -8.540525587074402
      ],
      [
        "今",
        -8.540713805622866
      ],
      [
        "十",
        -8.540969252422023
      ],
      [
        "森",
        -8.541652606702815
      ],
      [
        "リア",
        -8.54179552163326
      ],
      [
        "オー",
        -8.544643103972582
      ],
      [
        "シャ",
        -8.546889190908411
      ],
      [
        "所属",
        -8.547727487994186
      ],
      [
        "良",
        -8.548533397648072
      ],
      [
        "崎",
        -8.548604198681783
      ],
      [
        "量",
        -8.550315683560807
      ],
      [
        "があり",
        -8.55267210134071
      ],
      [
        "八",
        -8.553934595449322
      ],
      [
        "団",
        -8.555722733623263
      ],
      [
        "#",
        -8.5563706202042
      ],
      [
        "兵",
        -8.557006380541038
      ],
      [
        "派",
        -8.55720201311151
      ],
      [
        "2003年",
        -8.557291780048402
      ],
      [
        "死",
        -8.558433424003193
      ],
      [
        "られ",
        -8.559080998766898
      ],
      [
        "を持つ",
        -8.561794410726511
      ],
      [
        "攻撃",
        -8.562247330621851
      ],
      [
        "ジェ",
        -8.563793456591782
      ],
      [
        "ある",
        -8.56455268598776
      ],
      [
        "100",
        -8.564618654844057
      ],
      [
        "40",
        -8.565042930655938
      ],
      [
        "at",
        -8.56813318684801
      ],
      [
        "られる",
        -8.56986223844912
      ],
      [
        "アー",
        -8.572451154448402
      ],
      [
        "4年",
        -8.5727783249599
      ],
      [
        "条",
        -8.573379758939696
      ],
      [
        "っていた",
        -8.573656408651358
      ],
      [
        "ドラマ",
        -8.573989969102477
      ],
      [
        "レイ",
        -8.575240525456511
      ],
      [
        "御",
        -8.575464578400478
      ],
      [
        "ふ",
        -8.577323823191671
      ],
      [
        "当",
        -8.579532074256596
      ],
      [
        "社会",
        -8.580779052160723
      ],
      [
        "z",
        -8.581607864016572
      ],
      [
        "会社",
        -8.583921096412327
      ],
      [
        "産",
        -8.584268690761148
      ],
      [
        "問題",
        -8.586197917999877
      ],
      [
        "器",
        -8.591257514870854
      ],
      [
        "司",
        -8.591257807926963
      ],
      [
        "ことを",
        -8.591311247609243
      ],
      [
        "販売",
        -8.596427536178481
      ],
      [
        "藤",
        -8.599896349668445
      ],
      [
        "権",
        -8.600183094032362
      ],
      [
        "香",
        -8.601666306645441
      ],
      [
        "リング",
        -8.60228621098252
      ],
      [
        "葉",
        -8.604229359234
      ],
      [
        "現在",
        -8.60668883649683
      ],
      [
        "is",
        -8.607819322259365
      ],
      [
        "よう",
        -8.609368217333797
      ],
      [
        "ヌ",
        -8.610328688744337
      ],
      [
        "ており",
        -8.61042759898985
      ],
      [
        "交通",
        -8.611367200621482
      ],
      [
        "品",
        -8.611881694706561
      ],
      [
        "女性",
        -8.615806235220008
      ],
      [
        "火",
        -8.616783983145133
      ],
      [
        "字",
        -8.618509531254556
      ],
      [
        "地区",
        -8.61930653846296
      ],
      [
        "ゲ",
        -8.620294617043593
      ],
      [
        "と共に",
        -8.621625678044813
      ],
      [
        "スポーツ",
        -8.622185357477342
      ],
      [
        "太郎",
        -8.62356439717276
      ],
      [
        "食",
        -8.624019709652684
      ],
      [
        "システム",
        -8.624111188454332
      ],
      [
        "ラジオ",
        -8.62499652248182
      ],
      [
        "サー",
        -8.625160725822317
      ],
      [
        "豊",
        -8.625247256759083
      ],
      [
        "9月",
        -8.62548906763312
      ],
      [
        "計画",
        -8.62721053670233
      ],
      [
        "ハイ",
        -8.628877466191705
      ],
      [
        "来",
        -8.630727865140019
      ],
      [
        "残",
        -8.631379898317835
      ],
      [
        "士",
        -8.63349571657668
      ],
      [
        "2000年",
        -8.634064902600104
      ],
      [
        "エル",
        -8.634311093510382
      ],
      [
        "開始",
        -8.63524648625195
      ],
      [
        "モデル",
        -8.635723439173155
      ],
      [
        "2002年",
        -8.636347206882423
      ],
      [
        "カル",
        -8.637789143251712
      ],
      [
        "弾",
        -8.640627962767903
      ],
      [
        "–",
        -8.641197753411989
      ],
      [
        "夜",
        -8.641586572434184
      ],
      [
        "利",
        -8.64305405712566
      ],
      [
        "現在の",
        -8.644039977793852
      ],
      [
        "樹",
        -8.645490007759633
      ],
      [
        "協会",
        -8.646118960122706
      ],
      [
        "未",
        -8.647007227399426
      ],
      [
        "命",
        -8.649135920739152
      ],
      [
        "すると",
        -8.651187535426704
      ],
      [
        "ベル",
        -8.651244816936059
      ],
      [
        "フランス",
        -8.652555896563891
      ],
      [
        "米",
        -8.654251912459218
      ],
      [
        "出版",
        -8.65557059675684
      ],
      [
        "からの",
        -8.65640315877585
      ],
      [
        "21",
        -8.656857834869031
      ],
      [
        "クラブ",
        -8.65723491576146
      ],
      [
        "存命",
        -8.657768555201129
      ],
      [
        "再",
        -8.658528100520776
      ],
      [
        "地方",
        -8.660852112449366
      ],
      [
        "増",
        -8.662718630670497
      ],
      [
        "ぎ",
        -8.663891038020589
      ],
      [
        "戦争",
        -8.663932967633006
      ],
      [
        "戸",
        -8.664039382859494
      ],
      [
        "付",
        -8.664838132114417
      ],
      [
        "25",
        -8.665368783561329
      ],
      [
        "師",
        -8.666290638587885
      ],
      [
        "だけ",
        -8.667107892649954
      ],
      [
        "に対して",
        -8.667686481984855
      ],
      [
        "2001年",
        -8.668195074036511
      ],
      [
        "連",
        -8.66836310587721
      ],
      [
        "坂",
        -8.672483039961133
      ],
      [
        "ジュ",
        -8.672789779999029
      ],
      [
        "?",
        -8.6734928380062
      ],
      [
        "ファ",
        -8.673580783647486
      ],
      [
        "されていた",
        -8.673769679054653
      ],
      [
        "経済",
        -8.675569242293763
      ],
      [
        "ヘ",
        -8.67569080687776
      ],
      [
        "キャラクター",
        -8.676802385024638
      ],
      [
        "7月",
        -8.676855189171674
      ],
      [
        "to",
        -8.67891721857607
      ],
      [
        "ゼ",
        -8.679253573100567
      ],
      [
        "ドイツ",
        -8.680774174008006
      ],
      [
        "京",
        -8.681009159446198
      ],
      [
        "ビー",
        -8.685698431827667
      ],
      [
        "ガン",
        -8.687858371843674
      ],
      [
        "在",
        -8.68827189305157
      ],
      [
        "表",
        -8.688810473877115
      ],
      [
        "たち",
        -8.690481962120488
      ],
      [
        "公開",
        -8.692324114131432
      ],
      [
        "北海道",
        -8.692465813965637
      ],
      [
        "全国",
        -8.69356647068194
      ],
      [
        "例",
        -8.69369994245266
      ],
      [
        "領",
        -8.696310209984858
      ],
      [
        "鉄",
        -8.69702849384679
      ],
      [
        "アイ",
        -8.697929084845516
      ],
      [
        "祭",
        -8.697942009593076
      ],
      [
        "とともに",
        -8.698202051060493
      ],
      [
        "章",
        -8.702741958134595
      ],
      [
        "昭和",
        -8.703732379810647
      ],
      [
        "NHK",
        -8.703812970250166
      ],
      [
        "紀",
        -8.704746167868453
      ],
      [
        "de",
        -8.705427897753673
      ],
      [
        "ar",
        -8.705502086848655
      ],
      [
        "選",
        -8.705715936004559
      ],
      [
        "根",
        -8.706201158729792
      ],
      [
        "フィ",
        -8.706753093316019
      ],
      [
        "ルー",
        -8.707111955031253
      ],
      [
        "都市",
        -8.707116824199566
      ],
      [
        "園",
        -8.707445797017755
      ],
      [
        "に関する",
        -8.710943467139856
      ],
      [
        "〈",
        -8.71276795268774
      ],
      [
        "青",
        -8.713291387670015
      ],
      [
        "〉",
        -8.713422391157776
      ],
      [
        "人の",
        -8.713567188663106
      ],
      [
        "他の",
        -8.713853444235038
      ],
      [
        "波",
        -8.715222332214385
      ],
      [
        "当時",
        -8.715464530158808
      ],
      [
        "パー",
        -8.716740550273608
      ],
      [
        "技術",
        -8.717996755770292
      ],
      [
        "場所",
        -8.718537771759758
      ],
      [
        "et",
        -8.719209593792465
      ],
      [
        "関",
        -8.719281612982268
      ],
      [
        "ur",
        -8.720824496413329
      ],
      [
        "父",
        -8.720948989200114
      ],
      [
        "モン",
        -8.72199575828749
      ],
      [
        "足",
        -8.723255421876999
      ],
      [
        "高校",
        -8.725334176884449
      ],
      [
        "これは",
        -8.728757321466523
      ],
      [
        "これ",
        -8.729302754544603
      ],
      [
        "km",
        -8.732730937997976
      ],
      [
        "1年",
        -8.7334261190381
      ],
      [
        "半",
        -8.733446352604917
      ],
      [
        "特別",
        -8.733468494545722
      ],
      [
        "円",
        -8.73409735168737
      ],
      [
        "ビル",
        -8.736083230015296
      ],
      [
        "生まれ",
        -8.736543445716316
      ],
      [
        "テン",
        -8.736955991329353
      ],
      [
        "類",
        -8.738982425737232
      ],
      [
        "都",
        -8.740732848839654
      ],
      [
        "12月",
        -8.742299469563934
      ],
      [
        "調",
        -8.742838656072088
      ],
      [
        "ほか",
        -8.743416671286761
      ],
      [
        "強",
        -8.743662810039773
      ],
      [
        "薬",
        -8.74378937403337
      ],
      [
        "ライブ",
        -8.74535466709725
      ],
      [
        "彦",
        -8.745433931738194
      ],
      [
        "5年",
        -8.748238121043132
      ],
      [
        "艦",
        -8.748426103363277
      ],
      [
        "製作",
        -8.74965816548701
      ],
      [
        "ファン",
        -8.75007103190669
      ],
      [
        "反",
        -8.751205352458644
      ],
      [
        "23",
        -8.751427587319808
      ],
      [
        "越",
        -8.751545200319974
      ],
      [
        "漫画",
        -8.751841791765564
      ],
      [
        "なかった",
        -8.752665240077475
      ],
      [
        "末",
        -8.753605148989088
      ],
      [
        "6月",
        -8.753870545391555
      ],
      [
        "超",
        -8.754699654222824
      ],
      [
        "場合",
        -8.755286970557167
      ],
      [
        "総合",
        -8.755667320694215
      ],
      [
        "通り",
        -8.756428893417963
      ],
      [
        "製",
        -8.756443809414128
      ],
      [
        "出場",
        -8.759131768009865
      ],
      [
        "委員会",
        -8.760436873001563
      ],
      [
        "ロン",
        -8.761521439143905
      ],
      [
        "シングル",
        -8.761690635818722
      ],
      [
        "ール",
        -8.762467801938552
      ],
      [
        "22",
        -8.762651160580104
      ],
      [
        "没",
        -8.763998294191929
      ],
      [
        "設立",
        -8.765460172180743
      ],
      [
        "向",
        -8.765988365396941
      ],
      [
        "側",
        -8.767728302684143
      ],
      [
        "道路",
        -8.767987853665733
      ],
      [
        "造",
        -8.768754684208217
      ],
      [
        "el",
        -8.769075340535004
      ],
      [
        "チャ",
        -8.769537421310773
      ],
      [
        "任",
        -8.769999554107367
      ],
      [
        "河",
        -8.770874569854577
      ],
      [
        "質",
        -8.77246966052044
      ],
      [
        "エン",
        -8.773336270188183
      ],
      [
        "以降",
        -8.774846245018702
      ],
      [
        "宗",
        -8.774993458448984
      ],
      [
        "東京都",
        -8.77543794088668
      ],
      [
        "イギリス",
        -8.776378952055452
      ],
      [
        "ぐ",
        -8.777341821156538
      ],
      [
        "企画",
        -8.777918820214428
      ],
      [
        "生活",
        -8.777975796590251
      ],
      [
        "親",
        -8.778539568406016
      ],
      [
        "組織",
        -8.77948191157773
      ],
      [
        "素",
        -8.780901289714171
      ],
      [
        "路線",
        -8.781465579959155
      ],
      [
        "24",
        -8.781755364750696
      ],
      [
        "徳",
        -8.783556926341909
      ],
      [
        "タイ",
        -8.783816008908744
      ],
      [
        "職",
        -8.785606280688004
      ],
      [
        "守",
        -8.787454880890884
      ],
      [
        "ろ",
        -8.787909918065418
      ],
      [
        "そして",
        -8.788596679884765
      ],
      [
        "からは",
        -8.789825513796378
      ],
      [
        "羽",
        -8.791055382519323
      ],
      [
        "文庫",
        -8.791095563507366
      ],
      [
        "幸",
        -8.79151790049783
      ],
      [
        "ること",
        -8.792014871764794
      ],
      [
        "スーパー",
        -8.794217774499565
      ],
      [
        "蔵",
        -8.79470136080215
      ],
      [
        "ガー",
        -8.794969029764882
      ],
      [
        "なく",
        -8.797180569252976
      ],
      [
        "特",
        -8.797337806241497
      ],
      [
        "後の",
        -8.798249465918932
      ],
      [
        "多くの",
        -8.799376467728289
      ],
      [
        "ご",
        -8.799760192725367
      ],
      [
        "1999年",
        -8.802132350511316
      ],
      [
        "カン",
        -8.80307905191517
      ],
      [
        "劇場",
        -8.80394658537162
      ],
      [
        "を受け",
        -8.80451333812876
      ],
      [
        "訳",
        -8.806250583218425
      ],
      [
        "車両",
        -8.806337452728267
      ],
      [
        "取",
        -8.81077343688812
      ],
      [
        "ことが",
        -8.81264944935805
      ],
      [
        "調査",
        -8.812868861323429
      ],
      [
        "こう",
        -8.813943141310682
      ],
      [
        "悪",
        -8.813981352559809
      ],
      [
        "夏",
        -8.814027246103462
      ],
      [
        "公園",
        -8.815572297133114
      ],
      [
        "変更",
        -8.816170112351115
      ],
      [
        "いて",
        -8.816220023681831
      ],
      [
        "技",
        -8.816251138351012
      ],
      [
        "京都",
        -8.816337701022372
      ],
      [
        "があった",
        -8.817201916583244
      ],
      [
        "担当",
        -8.817792295217407
      ],
      [
        "画",
        -8.818830016316968
      ],
      [
        "管理",
        -8.819130301058172
      ],
      [
        "すること",
        -8.819498777934838
      ],
      [
        "pan",
        -8.820017659394397
      ],
      [
        "記録",
        -8.820244700532825
      ],
      [
        "]",
        -8.821057211069043
      ],
      [
        "以上",
        -8.821096132425824
      ],
      [
        "パン",
        -8.82399540714773
      ],
      [
        "佐",
        -8.824276463405594
      ],
      [
        "秋",
        -8.826609876733388
      ],
      [
        "[",
        -8.82711910412272
      ],
      [
        "出身",
        -8.82807187325611
      ],
      [
        "瀬",
        -8.830859127503752
      ],
      [
        "特に",
        -8.83108194689787
      ],
      [
        "8月",
        -8.831721713664257
      ],
      [
        "キー",
        -8.832340259200679
      ],
      [
        "IC",
        -8.834207101226566
      ],
      [
        "6年",
        -8.834544374733127
      ],
      [
        "神社",
        -8.835098459753858
      ],
      [
        "収録",
        -8.835761212303845
      ],
      [
        "右",
        -8.835916808658327
      ],
      [
        "ことから",
        -8.836311842884262
      ],
      [
        "!!",
        -8.836653966428663
      ],
      [
        "ーン",
        -8.837614252787018
      ],
      [
        "第4",
        -8.83910741599914
      ],
      [
        "第一",
        -8.840464021841566
      ],
      [
        "ランド",
        -8.842357680587808
      ],
      [
        "11月",
        -8.842881182677438
      ],
      [
        "港",
        -8.84298104164997
      ],
      [
        "it",
        -8.843823050908318
      ],
      [
        "左",
        -8.844899409287523
      ],
      [
        "la",
        -8.849448023059724
      ],
      [
        "コー",
        -8.851866412058682
      ],
      [
        "のため",
        -8.85227621259806
      ],
      [
        "人間",
        -8.852480559200293
      ],
      [
        "七",
        -8.85307918574033
      ],
      [
        "4月1日",
        -8.85349148027034
      ],
      [
        "とした",
        -8.855093028892059
      ],
      [
        "群",
        -8.85642507184143
      ],
      [
        "メンバー",
        -8.857018251205925
      ],
      [
        "シン",
        -8.857848020438952
      ],
      [
        "CD",
        -8.858404193461123
      ],
      [
        "角",
        -8.859941406112023
      ],
      [
        "を行う",
        -8.862806357865535
      ],
      [
        "工",
        -8.863415571264413
      ],
      [
        "説",
        -8.863721305064677
      ],
      [
        "企業",
        -8.864585150911923
      ],
      [
        "言",
        -8.865155642104778
      ],
      [
        "倉",
        -8.866761151036929
      ],
      [
        "ところ",
        -8.867774813412248
      ],
      [
        "敵",
        -8.867892014726744
      ],
      [
        "常",
        -8.868538450055016
      ],
      [
        "路",
        -8.868594139893949
      ],
      [
        "1998年",
        -8.868817819256815
      ],
      [
        "感",
        -8.869243460858364
      ],
      [
        "タイトル",
        -8.869329249396255
      ],
      [
        "デビュー",
        -8.870393200668824
      ],
      [
        "レー",
        -8.870621413358752
      ],
      [
        "保",
        -8.87229639737568
      ],
      [
        "もある",
        -8.872878903056428
      ],
      [
        "部分",
        -8.873544225394573
      ],
      [
        "務",
        -8.87381797152341
      ],
      [
        "ブル",
        -8.875681859655414
      ],
      [
        "学者",
        -8.87724878463523
      ],
      [
        "浜",
        -8.877423188133013
      ],
      [
        "洋",
        -8.877538384347714
      ],
      [
        "える",
        -8.879396981150006
      ],
      [
        "異",
        -8.880666131921013
      ],
      [
        "1月",
        -8.880771317292256
      ],
      [
        "ヴァ",
        -8.880969954996742
      ],
      [
        "または",
        -8.882878778404473
      ],
      [
        "機能",
        -8.885351127795811
      ],
      [
        "草",
        -8.886444742206162
      ],
      [
        "介",
        -8.886789339780336
      ],
      [
        "の一部",
        -8.887005424722306
      ],
      [
        "参加",
        -8.888802220741287
      ],
      [
        "...",
        -8.889156507599322
      ],
      [
        "7年",
        -8.890075525189078
      ],
      [
        "若",
        -8.894886483839835
      ],
      [
        "5月",
        -8.895497794317778
      ],
      [
        "ほど",
        -8.897261079210104
      ],
      [
        "×",
        -8.899080108603433
      ],
      [
        "られている",
        -8.899362440623449
      ],
      [
        "サービス",
        -8.899745428491068
      ],
      [
        "デザイン",
        -8.900504185899381
      ],
      [
        "ch",
        -8.90173610226704
      ],
      [
        "物語",
        -8.902130452698689
      ],
      [
        "極",
        -8.90566495469484
      ],
      [
        "近",
        -8.905731979090092
      ],
      [
        "の選手",
        -8.906123655905063
      ],
      [
        "六",
        -8.906624341319635
      ],
      [
        "ノー",
        -8.908374023950655
      ],
      [
        "百",
        -8.909324439479896
      ],
      [
        "宝",
        -8.910231795472193
      ],
      [
        "ただし",
        -8.910308946748314
      ],
      [
        "運動",
        -8.911070114375617
      ],
      [
        "ザー",
        -8.911220956292544
      ],
      [
        "列車",
        -8.911954777067306
      ],
      [
        "玉",
        -8.912150526034983
      ],
      [
        "ion",
        -8.91295985996019
      ],
      [
        "978",
        -8.91335439552826
      ],
      [
        "好",
        -8.91422557053816
      ],
      [
        "のような",
        -8.915065251234585
      ],
      [
        "廃止",
        -8.916103255991107
      ],
      [
        "1997年",
        -8.918104698816789
      ],
      [
        "カード",
        -8.918206483138992
      ],
      [
        "切",
        -8.91937613519067
      ],
      [
        "と呼ばれる",
        -8.921375636062997
      ],
      [
        "スタ",
        -8.922246559017962
      ],
      [
        "能力",
        -8.923116946397954
      ],
      [
        "基",
        -8.923258886828071
      ],
      [
        "走",
        -8.923353794397347
      ],
      [
        "熱",
        -8.923492813539209
      ],
      [
        "最",
        -8.923642654767475
      ],
      [
        "したが",
        -8.923863253967903
      ],
      [
        "科学",
        -8.924802240720707
      ],
      [
        "龍",
        -8.925625026673206
      ],
      [
        "FC",
        -8.925916658641539
      ],
      [
        "奈",
        -8.926795647192055
      ],
      [
        "レス",
        -8.930956286173254
      ],
      [
        "ハン",
        -8.931571902639444
      ],
      [
        "記念",
        -8.93253188411118
      ],
      [
        "ジョン",
        -8.93308695753903
      ],
      [
        "利用",
        -8.933826718544191
      ],
      [
        "es",
        -8.934573611503808
      ],
      [
        "ネット",
        -8.935946991921522
      ],
      [
        "マル",
        -8.936103199603208
      ],
      [
        "トリ",
        -8.936153680759341
      ],
      [
        "ではなく",
        -8.936209252537907
      ],
      [
        "意",
        -8.936348046925218
      ],
      [
        "夢",
        -8.937123116782404
      ],
      [
        "機関",
        -8.939610504562797
      ],
      [
        "1996年",
        -8.939925725893374
      ],
      [
        "工業",
        -8.941385092639543
      ],
      [
        "決定",
        -8.941676525649102
      ],
      [
        "指定",
        -8.944575228195953
      ],
      [
        "副",
        -8.94459235637598
      ],
      [
        "備",
        -8.945572728611356
      ],
      [
        "病院",
        -8.946015465139315
      ],
      [
        "破",
        -8.946819134305825
      ],
      [
        "に対する",
        -8.947116480864398
      ],
      [
        "交",
        -8.94757401541564
      ],
      [
        "病",
        -8.948192989143081
      ],
      [
        "街",
        -8.948715474080597
      ],
      [
        "ように",
        -8.949028784896978
      ],
      [
        "満",
        -8.949261086952882
      ],
      [
        "陽",
        -8.951330860837755
      ],
      [
        "首",
        -8.951624162729553
      ],
      [
        "2月",
        -8.95333052741372
      ],
      [
        "一般",
        -8.954996306500759
      ],
      [
        "べ",
        -8.955122128467824
      ],
      [
        "ユ",
        -8.955670796430544
      ],
      [
        "については",
        -8.956429526527746
      ],
      [
        "製造",
        -8.95653908735565
      ],
      [
        "魔",
        -8.956719304006795
      ],
      [
        "渡",
        -8.957238581067072
      ],
      [
        "運行",
        -8.957680399402852
      ],
      [
        "イベント",
        -8.957729769389543
      ],
      [
        "郷",
        -8.957899266063183
      ],
      [
        "航空",
        -8.959763581626598
      ],
      [
        "1995年",
        -8.960596960923922
      ],
      [
        "結果",
        -8.961124064173733
      ],
      [
        "端",
        -8.964620680415866
      ],
      [
        "同じ",
        -8.964743705344466
      ],
      [
        "界",
        -8.966144332056219
      ],
      [
        "起",
        -8.966719033810634
      ],
      [
        "修",
        -8.968818298742145
      ],
      [
        "ダイ",
        -8.969033358837928
      ],
      [
        "血",
        -8.96962998261051
      ],
      [
        "”",
        -8.970930334028937
      ],
      [
        "キャ",
        -8.973593095431164
      ],
      [
        "友",
        -8.973915846562818
      ],
      [
        "妻",
        -8.974077895342916
      ],
      [
        "させ",
        -8.974212506772314
      ],
      [
        "節",
        -8.975196141386558
      ],
      [
        "存在",
        -8.97560606960356
      ],
      [
        "オリンピック",
        -8.975977877860064
      ],
      [
        "60",
        -8.976487736738724
      ],
      [
        "ックス",
        -8.97683492615167
      ],
      [
        "英語",
        -8.976900648631219
      ],
      [
        "させる",
        -8.976921976825755
      ],
      [
        "時に",
        -8.977201376816266
      ],
      [
        "忠",
        -8.97757590003953
      ],
      [
        "浦",
        -8.978073742793807
      ],
      [
        "ホール",
        -8.980285502402326
      ],
      [
        "ーズ",
        -8.981330770147892
      ],
      [
        "構造",
        -8.982598208809762
      ],
      [
        "海軍",
        -8.984347753113529
      ],
      [
        "図",
        -8.986624084842413
      ],
      [
        "生産",
        -8.987300831049334
      ],
      [
        "農",
        -8.987408939101018
      ],
      [
        "誌",
        -8.987623235810977
      ],
      [
        "主な",
        -8.987738400086196
      ],
      [
        "砲",
        -8.988010600710645
      ],
      [
        "MA",
        -8.988995548861421
      ],
      [
        "IN",
        -8.989943076347528
      ],
      [
        "登場",
        -8.990510301867985
      ],
      [
        "TV",
        -8.991675821897465
      ],
      [
        "ia",
        -8.991827827323204
      ],
      [
        "結",
        -8.993725923763984
      ],
      [
        "そ",
        -8.994154035144744
      ],
      [
        "原作",
        -8.994964083642403
      ],
      [
        "ra",
        -8.997188019969474
      ],
      [
        "オン",
        -8.99727947511293
      ],
      [
        "送",
        -8.998203526879255
      ],
      [
        "取り",
        -8.998768706890008
      ],
      [
        "アメリカ合衆国の",
        -8.999865227827387
      ],
      [
        "たい",
        -9.001607599797879
      ],
      [
        "開業",
        -9.001924372547322
      ],
      [
        "1994年",
        -9.003859567713526
      ],
      [
        "設定",
        -9.004765933423789
      ],
      [
        "敗",
        -9.0057135920938
      ],
      [
        "弘",
        -9.00632755365385
      ],
      [
        "恵",
        -9.006707844921646
      ],
      [
        "その他",
        -9.006953660680493
      ],
      [
        "ッシュ",
        -9.008535458186913
      ],
      [
        "帝国",
        -9.011434089748954
      ],
      [
        "終了",
        -9.011604042001741
      ],
      [
        "属",
        -9.012643194996011
      ],
      [
        "タン",
        -9.012935720067613
      ],
      [
        "付け",
        -9.013013566774823
      ],
      [
        "少年",
        -9.013127510679558
      ],
      [
        "竹",
        -9.013741559274244
      ],
      [
        "郎",
        -9.014188927611922
      ],
      [
        "裏",
        -9.014223754153369
      ],
      [
        "ッチ",
        -9.014241937502069
      ],
      [
        "8年",
        -9.017146762300126
      ],
      [
        "像",
        -9.017969435116724
      ],
      [
        "un",
        -9.02067445026177
      ],
      [
        "としては",
        -9.021964187339945
      ],
      [
        ";",
        -9.022516483109847
      ],
      [
        "撮影",
        -9.02379225382356
      ],
      [
        "TBS",
        -9.025636822103708
      ],
      [
        "ホーム",
        -9.02586667172977
      ],
      [
        "配信",
        -9.025995142053619
      ],
      [
        "商",
        -9.026841500817346
      ],
      [
        "部隊",
        -9.027763731532625
      ],
      [
        "26",
        -9.028865687265325
      ],
      [
        "学園",
        -9.0292044541292
      ],
      [
        "政府",
        -9.02983928423819
      ],
      [
        "栄",
        -9.030054229654102
      ],
      [
        "族",
        -9.032428440719666
      ],
      [
        "藩",
        -9.033592530334802
      ],
      [
        "ic",
        -9.034320164112168
      ],
      [
        "解",
        -9.035674597617565
      ],
      [
        "公演",
        -9.035801542621616
      ],
      [
        "装",
        -9.036104205130442
      ],
      [
        "仁",
        -9.036163965012008
      ],
      [
        "ざ",
        -9.03617750683781
      ],
      [
        "ことで",
        -9.036279565036065
      ],
      [
        "Re",
        -9.036359260205737
      ],
      [
        "速",
        -9.036648024599241
      ],
      [
        "運転",
        -9.036894230328878
      ],
      [
        "そう",
        -9.037255517279375
      ],
      [
        "年間",
        -9.037556800207442
      ],
      [
        "29",
        -9.03822131739063
      ],
      [
        "ッツ",
        -9.038383663956335
      ],
      [
        "居",
        -9.038433783949388
      ],
      [
        "順",
        -9.038600939970202
      ],
      [
        "状態",
        -9.038770658645117
      ],
      [
        "セン",
        -9.03908146135772
      ],
      [
        "成績",
        -9.039496983168053
      ],
      [
        "学部",
        -9.039868297162686
      ],
      [
        "建設",
        -9.040031159396667
      ],
      [
        "非",
        -9.040546490692165
      ],
      [
        "チェ",
        -9.040606561486792
      ],
      [
        "構成",
        -9.041478523574153
      ],
      [
        "ちゃん",
        -9.042089398415316
      ],
      [
        "1993年",
        -9.042542718098616
      ],
      [
        "フジテレビ",
        -9.043352407842523
      ],
      [
        "野球",
        -9.043839278878256
      ],
      [
        "バンド",
        -9.043848386051732
      ],
      [
        "小説",
        -9.044867721051652
      ],
      [
        "*",
        -9.045421405550846
      ],
      [
        "発行",
        -9.045650621919064
      ],
      [
        "ながら",
        -9.045792011536976
      ],
      [
        "優",
        -9.04584839896561
      ],
      [
        "評価",
        -9.046628737915325
      ],
      [
        "環境",
        -9.046849182745481
      ],
      [
        "泉",
        -9.047700686413325
      ],
      [
        "報",
        -9.048657206636692
      ],
      [
        "1990年",
        -9.049370901715529
      ],
      [
        "自動車",
        -9.04964681371025
      ],
      [
        "著",
        -9.049916887774911
      ],
      [
        "富",
        -9.050348332673222
      ],
      [
        "デン",
        -9.050911726706993
      ],
      [
        "サイ",
        -9.051430816539549
      ],
      [
        "予定",
        -9.051621083133421
      ],
      [
        "フェ",
        -9.052340415124961
      ],
      [
        "賀",
        -9.053131283396421
      ],
      [
        "1992年",
        -9.054492331691621
      ],
      [
        "様",
        -9.054671117883636
      ],
      [
        "中に",
        -9.05472301381647
      ],
      [
        "横",
        -9.055454997529006
      ],
      [
        "廃",
        -9.056812117670606
      ],
      [
        "隆",
        -9.057360183021881
      ],
      [
        "発表",
        -9.058379281177164
      ],
      [
        "ドル",
        -9.060622661828766
      ],
      [
        "ロシア",
        -9.060750151944603
      ],
      [
        "最高",
        -9.062261009297844
      ],
      [
        "x",
        -9.062454408108358
      ],
      [
        "大正",
        -9.062457408551138
      ],
      [
        "接",
        -9.062695714941224
      ],
      [
        "しい",
        -9.063662743090976
      ],
      [
        "Q",
        -9.063924051905081
      ],
      [
        "クロ",
        -9.064097482725161
      ],
      [
        "バン",
        -9.06420562637873
      ],
      [
        "便",
        -9.064378093203459
      ],
      [
        "打",
        -9.06453596870692
      ],
      [
        "秀",
        -9.066234857344602
      ],
      [
        "源",
        -9.06639944836319
      ],
      [
        "ティー",
        -9.06745997547368
      ],
      [
        "st",
        -9.06786376190897
      ],
      [
        "断",
        -9.067983779799494
      ],
      [
        "なる",
        -9.070099197468238
      ],
      [
        "何",
        -9.07083873040293
      ],
      [
        "のために",
        -9.070975685215533
      ],
      [
        "ゆ",
        -9.07103890236952
      ],
      [
        "ヴ",
        -9.071577609682352
      ],
      [
        "銀行",
        -9.071859517491898
      ],
      [
        "自由",
        -9.071966149922805
      ],
      [
        "ハー",
        -9.07214020600981
      ],
      [
        "経",
        -9.072680002718204
      ],
      [
        "輪",
        -9.076281255644586
      ],
      [
        "舞台",
        -9.07690912428479
      ],
      [
        "しない",
        -9.077305454275216
      ],
      [
        "初の",
        -9.077565530443323
      ],
      [
        "前に",
        -9.07828942102013
      ],
      [
        "選挙",
        -9.079132122883607
      ],
      [
        "v",
        -9.079721022279589
      ],
      [
        "かった",
        -9.079800275929056
      ],
      [
        "設置",
        -9.079895716812986
      ],
      [
        "ために",
        -9.079910571549732
      ],
      [
        "興",
        -9.079965450041572
      ],
      [
        "編成",
        -9.08046850048962
      ],
      [
        "にかけて",
        -9.081275921286348
      ],
      [
        "ad",
        -9.081646019734777
      ],
      [
        "岸",
        -9.082520259354592
      ],
      [
        "アメリカ合衆国",
        -9.084302086703923
      ],
      [
        "福",
        -9.084613124103543
      ],
      [
        "発生",
        -9.085055826772917
      ],
      [
        "1991年",
        -9.085961496545627
      ],
      [
        "80",
        -9.08702105536408
      ],
      [
        "放",
        -9.087451907888438
      ],
      [
        "麻",
        -9.089045882238862
      ],
      [
        "契約",
        -9.089961020021795
      ],
      [
        "ニュー",
        -9.090089889816813
      ],
      [
        "恋",
        -9.090761610255534
      ],
      [
        "也",
        -9.090865048046998
      ],
      [
        "ロック",
        -9.092336071871477
      ],
      [
        "球",
        -9.092605447941557
      ],
      [
        "ニュース",
        -9.092641286345305
      ],
      [
        "健",
        -9.092744151232642
      ],
      [
        "現代",
        -9.093005496760632
      ],
      [
        "連続",
        -9.093271263831598
      ],
      [
        "智",
        -9.094789867063664
      ],
      [
        "ヨ",
        -9.09619708413013
      ],
      [
        "当時の",
        -9.096674049951794
      ],
      [
        "データ",
        -9.097012370645249
      ],
      [
        "宇宙",
        -9.097294646699764
      ],
      [
        "板",
        -9.099350901182166
      ],
      [
        "倒",
        -9.100558235075406
      ],
      [
        "一部",
        -9.101320408006636
      ],
      [
        "ジー",
        -9.101678232888366
      ],
      [
        "矢",
        -9.102144444705644
      ],
      [
        "男子",
        -9.102367149146264
      ],
      [
        "営",
        -9.102940684778936
      ],
      [
        "エンジン",
        -9.103462279813337
      ],
      [
        "研究所",
        -9.104173093417021
      ],
      [
        "遠",
        -9.104398830684652
      ],
      [
        "ッド",
        -9.105586826886013
      ],
      [
        "亜",
        -9.105918414259948
      ],
      [
        "華",
        -9.106374583627206
      ],
      [
        "住",
        -9.106899261332162
      ],
      [
        "経営",
        -9.106912937120324
      ],
      [
        "ものの",
        -9.107430644948733
      ],
      [
        "枚",
        -9.108241181272472
      ],
      [
        "竜",
        -9.108643132558337
      ],
      [
        "されて",
        -9.11064897977457
      ],
      [
        "視",
        -9.11140245847009
      ],
      [
        "絵",
        -9.111799616400953
      ],
      [
        "マイ",
        -9.11200874747045
      ],
      [
        "支援",
        -9.112406091624019
      ],
      [
        "ダン",
        -9.112636899862094
      ],
      [
        "のように",
        -9.112721615129562
      ],
      [
        "紙",
        -9.113936796149385
      ],
      [
        "に伴い",
        -9.118202849167442
      ],
      [
        "ro",
        -9.119641307846516
      ],
      [
        "000",
        -9.120249552594696
      ],
      [
        "バル",
        -9.121273448987564
      ],
      [
        "映像",
        -9.121669104641757
      ],
      [
        "THE",
        -9.121676444552222
      ],
      [
        "設計",
        -9.123356975966642
      ],
      [
        "内容",
        -9.12399210113346
      ],
      [
        "mm",
        -9.124375066298887
      ],
      [
        "鳥",
        -9.124440489327336
      ],
      [
        "クス",
        -9.124909564813263
      ],
      [
        "させた",
        -9.12498158973927
      ],
      [
        "48",
        -9.124995591566474
      ],
      [
        "博",
        -9.125133505041445
      ],
      [
        "ニア",
        -9.126167683713742
      ],
      [
        "アジア",
        -9.126289504352131
      ],
      [
        "um",
        -9.127332800916603
      ],
      [
        "トゥ",
        -9.127354556572977
      ],
      [
        "あり",
        -9.12784286469296
      ],
      [
        "大きな",
        -9.128342536184203
      ],
      [
        "1989年",
        -9.128652504256916
      ],
      [
        "スペシャル",
        -9.129735780556352
      ],
      [
        "協力",
        -9.129869967051057
      ],
      [
        "ワン",
        -9.130011516326434
      ],
      [
        "団体",
        -9.130145185822627
      ],
      [
        "といった",
        -9.130164165096826
      ],
      [
        "共",
        -9.13033062321833
      ],
      [
        "庁",
        -9.130391324525952
      ],
      [
        "II",
        -9.130702918724154
      ],
      [
        "中の",
        -9.130803922229646
      ],
      [
        "“",
        -9.13233582440841
      ],
      [
        "政治",
        -9.133098058944482
      ],
      [
        "客",
        -9.133341564179688
      ],
      [
        ">",
        -9.133613336593166
      ],
      [
        "片",
        -9.133849574157765
      ],
      [
        "退",
        -9.1338715455638
      ],
      [
        "レース",
        -9.134084185693872
      ],
      [
        "湖",
        -9.135484469752829
      ],
      [
        "とされる",
        -9.135827975501266
      ],
      [
        "ジョ",
        -9.137298395678968
      ],
      [
        "27",
        -9.137513747555127
      ],
      [
        "裕",
        -9.13866378278191
      ],
      [
        "の人物",
        -9.138871418231963
      ],
      [
        "剣",
        -9.139445336653754
      ],
      [
        "9年",
        -9.140734605647578
      ],
      [
        "置",
        -9.141026093026634
      ],
      [
        "li",
        -9.14145740444835
      ],
      [
        "フリー",
        -9.14155855962968
      ],
      [
        "格",
        -9.142748567298064
      ],
      [
        "収",
        -9.144026879622274
      ],
      [
        "公式",
        -9.14550679433648
      ],
      [
        "雪",
        -9.145748316965758
      ],
      [
        "歩",
        -9.146599420652143
      ],
      [
        "使",
        -9.146709120036045
      ],
      [
        "観",
        -9.14891989085344
      ],
      [
        "il",
        -9.149796642165672
      ],
      [
        "共同",
        -9.14999654770843
      ],
      [
        "トラ",
        -9.150184420536897
      ],
      [
        "オリジナル",
        -9.150678811417714
      ],
      [
        "配",
        -9.150728711381985
      ],
      [
        "を受けた",
        -9.151711095402085
      ],
      [
        "28",
        -9.152570797391654
      ],
      [
        "留",
        -9.15273485774306
      ],
      [
        "ション",
        -9.153653979547537
      ],
      [
        "as",
        -9.153661252135903
      ],
      [
        "池",
        -9.154546570893322
      ],
      [
        "貴",
        -9.154727702050621
      ],
      [
        "府",
        -9.15897975677418
      ],
      [
        "産業",
        -9.15922792842083
      ],
      [
        "35",
        -9.160441387183285
      ],
      [
        "45",
        -9.160626641136732
      ],
      [
        "プロデューサー",
        -9.16118539290883
      ],
      [
        "奥",
        -9.163332486347443
      ],
      [
        "女優",
        -9.163830484311625
      ],
      [
        "塚",
        -9.164363579855253
      ],
      [
        "伊",
        -9.164660924438857
      ],
      [
        "差",
        -9.165915919309876
      ],
      [
        "ミー",
        -9.166005750368255
      ],
      [
        "計",
        -9.16630767036753
      ],
      [
        "経歴",
        -9.166698711163331
      ],
      [
        "宿",
        -9.166763777663624
      ],
      [
        "選手権",
        -9.16711710220293
      ],
      [
        "を経て",
        -9.168089465362524
      ],
      [
        "頃",
        -9.168649374082333
      ],
      [
        "サッカー",
        -9.168838654097444
      ],
      [
        "国家",
        -9.170010131606702
      ],
      [
        "te",
        -9.170320188303927
      ],
      [
        "文学",
        -9.17091086216836
      ],
      [
        "キング",
        -9.171100410258331
      ],
      [
        "改",
        -9.171646260140895
      ],
      [
        "1987年",
        -9.171989993835918
      ],
      [
        "通信",
        -9.172795704910788
      ],
      [
        "決",
        -9.173448169976243
      ],
      [
        "九",
        -9.173523465418453
      ],
      [
        "深",
        -9.173569706509618
      ],
      [
        "コーナー",
        -9.173681990293394
      ],
      [
        "積",
        -9.174366654852943
      ],
      [
        "Ch",
        -9.174744652321236
      ],
      [
        "ベスト",
        -9.176273985910015
      ],
      [
        "内の",
        -9.176278937629874
      ],
      [
        "初めて",
        -9.17670710252603
      ],
      [
        "乗",
        -9.177811763996273
      ],
      [
        "単",
        -9.17801045839844
      ],
      [
        "会議",
        -9.178096782388515
      ],
      [
        "TO",
        -9.178824254381562
      ],
      [
        "建",
        -9.178933397860689
      ],
      [
        "味",
        -9.180553541377142
      ],
      [
        "のうち",
        -9.180810764242018
      ],
      [
        "それぞれ",
        -9.181706632557685
      ],
      [
        "茶",
        -9.18218926622527
      ],
      [
        "為",
        -9.182351466993135
      ],
      [
        "1988年",
        -9.183475288961795
      ],
      [
        "望",
        -9.183521283986973
      ],
      [
        "工場",
        -9.184091588073692
      ],
      [
        "段",
        -9.18521737566545
      ],
      [
        "時代の",
        -9.186268413027882
      ],
      [
        "カップ",
        -9.186554601358154
      ],
      [
        "落",
        -9.186699537168778
      ],
      [
        "ップ",
        -9.186757360674324
      ],
      [
        "助",
        -9.18720259605591
      ],
      [
        "布",
        -9.18782563006973
      ],
      [
        "イタリア",
        -9.190202561954491
      ],
      [
        "】",
        -9.190404530867934
      ],
      [
        "部門",
        -9.190545665990014
      ],
      [
        "康",
        -9.190690016100955
      ],
      [
        "【",
        -9.190797422445826
      ],
      [
        "仕",
        -9.191105634773479
      ],
      [
        "提供",
        -9.191350706277577
      ],
      [
        "ほ",
        -9.191473183155969
      ],
      [
        "美術",
        -9.191585729932106
      ],
      [
        "紹介",
        -9.192529424298849
      ],
      [
        "ると",
        -9.19339479373375
      ],
      [
        "急",
        -9.194137567820318
      ],
      [
        "喜",
        -9.194163928727942
      ],
      [
        "卒業",
        -9.19439132853212
      ],
      [
        "主人公",
        -9.194397599092799
      ],
      [
        "タイム",
        -9.194568582632392
      ],
      [
        "ライン",
        -9.195138800976116
      ],
      [
        "俳優",
        -9.195150497925598
      ],
      [
        "ST",
        -9.195725829324159
      ],
      [
        "顔",
        -9.195913941392748
      ],
      [
        "トル",
        -9.196349339411107
      ],
      [
        "セル",
        -9.197300787655031
      ],
      [
        "文字",
        -9.19749483798779
      ],
      [
        "DVD",
        -9.198477436279322
      ],
      [
        "層",
        -9.198802193317203
      ],
      [
        "教会",
        -9.19934639551298
      ],
      [
        "具",
        -9.199444353974569
      ],
      [
        "主演",
        -9.199845721864973
      ],
      [
        "将",
        -9.200365314670892
      ],
      [
        "運営",
        -9.20046708105918
      ],
      [
        "ステージ",
        -9.20277228003299
      ],
      [
        "市の",
        -9.203552220168769
      ],
      [
        "最終",
        -9.204039773092546
      ],
      [
        "―",
        -9.204196792159395
      ],
      [
        "沼",
        -9.205207728062133
      ],
      [
        "遊",
        -9.205580178672124
      ],
      [
        "へと",
        -9.207801287240581
      ],
      [
        "NA",
        -9.20861476695156
      ],
      [
        "世紀",
        -9.209123013696823
      ],
      [
        "げ",
        -9.209539829582818
      ],
      [
        "500",
        -9.210505104086716
      ],
      [
        "RE",
        -9.211206461880277
      ],
      [
        "者の",
        -9.21171183607653
      ],
      [
        "しく",
        -9.211928137247197
      ],
      [
        "ではない",
        -9.211977578707035
      ],
      [
        "席",
        -9.21214881883915
      ],
      [
        "行動",
        -9.21215267640115
      ],
      [
        "ブラ",
        -9.212375346436158
      ],
      [
        "入り",
        -9.212482086390715
      ],
      [
        "フル",
        -9.212650034928467
      ],
      [
        "しか",
        -9.212738632877569
      ],
      [
        "勝利",
        -9.213589493970296
      ],
      [
        "ign",
        -9.214364593215155
      ],
      [
        "名古屋",
        -9.214600768639288
      ],
      [
        "立ち",
        -9.215182684053184
      ],
      [
        "個人",
        -9.215252364803073
      ],
      [
        "ステ",
        -9.215506682504444
      ],
      [
        "クリ",
        -9.215576638063467
      ],
      [
        "独立",
        -9.215931530432158
      ],
      [
        "ation",
        -9.216579624459657
      ],
      [
        "君",
        -9.217567750417713
      ],
      [
        "児",
        -9.217635419991291
      ],
      [
        "術",
        -9.218109797399656
      ],
      [
        "自分",
        -9.218511518384895
      ],
      [
        "枠",
        -9.218787945091028
      ],
      [
        "演出",
        -9.219284334143167
      ],
      [
        "区間",
        -9.21955881910501
      ],
      [
        "ヨーロッパ",
        -9.219731367250342
      ],
      [
        "兄",
        -9.220240887322841
      ],
      [
        "率",
        -9.221377729485338
      ],
      [
        "AN",
        -9.221876901295644
      ],
      [
        "私",
        -9.221952148665071
      ],
      [
        "リスト",
        -9.222002555135221
      ],
      [
        "諸",
        -9.222686269615824
      ],
      [
        "能",
        -9.22297537146029
      ],
      [
        "歳",
        -9.223177768576013
      ],
      [
        "コース",
        -9.223616264668449
      ],
      [
        "ol",
        -9.223790298047714
      ],
      [
        "医",
        -9.223943663160249
      ],
      [
        "JR",
        -9.224403784352985
      ],
      [
        "ウス",
        -9.225155356613024
      ],
      [
        "指",
        -9.225262484800705
      ],
      [
        "第二",
        -9.225921249024092
      ],
      [
        "作家",
        -9.227596280552726
      ],
      [
        "盤",
        -9.227756250481324
      ],
      [
        "現在は",
        -9.227927154546425
      ],
      [
        "従",
        -9.229230837516003
      ],
      [
        "目的",
        -9.229425145934108
      ],
      [
        "されており",
        -9.229768168384561
      ],
      [
        "BS",
        -9.229841240473016
      ],
      [
        "ディー",
        -9.230149655333058
      ],
      [
        "桜",
        -9.232955829032973
      ],
      [
        "戦闘",
        -9.233046367161684
      ],
      [
        "ウィ",
        -9.234291039631996
      ],
      [
        "ような",
        -9.234803194710745
      ],
      [
        "よく",
        -9.235122651770252
      ],
      [
        "注釈",
        -9.235215909684364
      ],
      [
        "張",
        -9.2356536365102
      ],
      [
        "んで",
        -9.235912393326949
      ],
      [
        "インド",
        -9.236322305965649
      ],
      [
        "採用",
        -9.236940341435565
      ],
      [
        "脚本",
        -9.237090220793032
      ],
      [
        "殺",
        -9.23740112927611
      ],
      [
        "ホー",
        -9.23962745520201
      ],
      [
        "よりも",
        -9.239822065168635
      ],
      [
        "を含む",
        -9.239979336386034
      ],
      [
        "1回",
        -9.241578431162965
      ],
      [
        "彼の",
        -9.2424185633459
      ],
      [
        "家の",
        -9.243847671318822
      ],
      [
        "地球",
        -9.244377457460061
      ],
      [
        "1986年",
        -9.244396958890603
      ],
      [
        "目の",
        -9.244839253647408
      ],
      [
        "れる",
        -9.2452927977268
      ],
      [
        "スタッフ",
        -9.245720792574653
      ],
      [
        "ケン",
        -9.24682329425057
      ],
      [
        "家族",
        -9.247476676208981
      ],
      [
        "税",
        -9.24880998769181
      ],
      [
        "移",
        -9.248838618324703
      ],
      [
        "俊",
        -9.248879396789059
      ],
      [
        "RO",
        -9.249445336369286
      ],
      [
        "☆",
        -9.249681807149253
      ],
      [
        "の中で",
        -9.250095591695342
      ],
      [
        "St",
        -9.250786238584592
      ],
      [
        "第5",
        -9.251177419072937
      ],
      [
        "再び",
        -9.25125488954584
      ],
      [
        "に対し",
        -9.25202011293515
      ],
      [
        "覚",
        -9.252783540862897
      ],
      [
        "チャー",
        -9.25330325362009
      ],
      [
        "勢",
        -9.25409287282684
      ],
      [
        "澤",
        -9.254284940760655
      ],
      [
        "RA",
        -9.254584529910934
      ],
      [
        "塩",
        -9.254967542585968
      ],
      [
        "事故",
        -9.258034151529653
      ],
      [
        "キン",
        -9.258103466827087
      ],
      [
        "自然",
        -9.258236605686909
      ],
      [
        "われ",
        -9.258511407110861
      ],
      [
        "ter",
        -9.259216249570708
      ],
      [
        "<",
        -9.259509381513562
      ],
      [
        "天皇",
        -9.26024510351098
      ],
      [
        "バイ",
        -9.261481936875969
      ],
      [
        "ジャー",
        -9.262607054101446
      ],
      [
        "方法",
        -9.262920721749536
      ],
      [
        "一方",
        -9.266085861892734
      ],
      [
        "令",
        -9.266108913032664
      ],
      [
        "の歴史",
        -9.266869997964115
      ],
      [
        "管",
        -9.266909290980552
      ],
      [
        "メン",
        -9.267051335266192
      ],
      [
        "値",
        -9.267567438184278
      ],
      [
        "プラ",
        -9.268035392325395
      ],
      [
        "最も",
        -9.268360319995276
      ],
      [
        "試験",
        -9.26865984245719
      ],
      [
        "早",
        -9.268804999935162
      ],
      [
        "日本テレビ",
        -9.269031710246736
      ],
      [
        "純",
        -9.269662305925133
      ],
      [
        "1985年",
        -9.270115482514088
      ],
      [
        "比",
        -9.271372100679004
      ],
      [
        "補",
        -9.271868290237595
      ],
      [
        "公式サイト",
        -9.271915801260105
      ],
      [
        "になり",
        -9.272028950071046
      ],
      [
        "移動",
        -9.27255336665287
      ],
      [
        "クラス",
        -9.272842039510833
      ],
      [
        "列",
        -9.272970524108256
      ],
      [
        "テレビ朝日",
        -9.27310635700757
      ],
      [
        "70",
        -9.27339345014249
      ],
      [
        "鬼",
        -9.273497101790621
      ],
      [
        "陸軍",
        -9.273881402959585
      ],
      [
        "主義",
        -9.274150653569079
      ],
      [
        "九州",
        -9.274246235019131
      ],
      [
        "表記",
        -9.274425011560513
      ],
      [
        "演奏",
        -9.275659983849494
      ],
      [
        "どう",
        -9.276939005691894
      ],
      [
        "阿",
        -9.278294999036504
      ],
      [
        "軽",
        -9.278475789657564
      ],
      [
        "一郎",
        -9.27879797743109
      ],
      [
        "跡",
        -9.279332469065869
      ],
      [
        "以下",
        -9.279356216604306
      ],
      [
        "周",
        -9.280757723532417
      ],
      [
        "オブ",
        -9.28102054906241
      ],
      [
        "作戦",
        -9.281116727394352
      ],
      [
        "売",
        -9.283009977526614
      ],
      [
        "少女",
        -9.283141743664348
      ],
      [
        "初代",
        -9.283695168871166
      ],
      [
        "ぼ",
        -9.284104912666773
      ],
      [
        "娘",
        -9.284629277781985
      ],
      [
        "を行った",
        -9.2855333260215
      ],
      [
        "になっている",
        -9.285719986867605
      ],
      [
        "帯",
        -9.285806717302306
      ],
      [
        "警察",
        -9.287198614590103
      ],
      [
        "典",
        -9.2875380764598
      ],
      [
        "写真",
        -9.288248590035195
      ],
      [
        "lo",
        -9.288801550303239
      ],
      [
        "彼は",
        -9.289095349744265
      ],
      [
        "se",
        -9.289559623650362
      ],
      [
        "最初の",
        -9.289578714683383
      ],
      [
        "col",
        -9.29099600196319
      ],
      [
        "雲",
        -9.291504875590968
      ],
      [
        "状",
        -9.291683146288516
      ],
      [
        "スタジオ",
        -9.291798553212328
      ],
      [
        "翌",
        -9.29267190711698
      ],
      [
        "柳",
        -9.293658112951904
      ],
      [
        "孫",
        -9.294239004071324
      ],
      [
        "ライト",
        -9.295120951566357
      ],
      [
        "55",
        -9.29539391138347
      ],
      [
        "ma",
        -9.295701603276836
      ],
      [
        "密",
        -9.295798952587102
      ],
      [
        "課",
        -9.29651899918482
      ],
      [
        "休",
        -9.296977669544834
      ],
      [
        "を見",
        -9.29769904824017
      ],
      [
        "1984年",
        -9.297992496379594
      ],
      [
        "MI",
        -9.29810091405919
      ],
      [
        "ます",
        -9.298361122236749
      ],
      [
        "ぶり",
        -9.299646804525162
      ],
      [
        "In",
        -9.300031148211392
      ],
      [
        "登録",
        -9.300168518989812
      ],
      [
        "霊",
        -9.30075464217087
      ],
      [
        "えた",
        -9.302142766844781
      ],
      [
        "統合",
        -9.302382089598124
      ],
      [
        "芸術",
        -9.304108510767994
      ],
      [
        "ir",
        -9.304431750148701
      ],
      [
        "横浜",
        -9.304954690138416
      ],
      [
        "発見",
        -9.305000552325573
      ],
      [
        "まる",
        -9.3054484074852
      ],
      [
        "延",
        -9.306563814576023
      ],
      [
        "堀",
        -9.306687904132318
      ],
      [
        "考え",
        -9.307415718891624
      ],
      [
        "国内",
        -9.309245521976232
      ],
      [
        "までの",
        -9.309384182416954
      ],
      [
        "アップ",
        -9.309633300992958
      ],
      [
        "様々な",
        -9.310192469009435
      ],
      [
        "絶",
        -9.31088538671309
      ],
      [
        "大統領",
        -9.311036520304595
      ],
      [
        "姿",
        -9.31122237087213
      ],
      [
        "会長",
        -9.312057835925993
      ],
      [
        "低",
        -9.312440865542783
      ],
      [
        "切り",
        -9.31266435132383
      ],
      [
        "ファー",
        -9.313077072354929
      ],
      [
        "ヶ",
        -9.314113807602705
      ],
      [
        "合併",
        -9.31636951595332
      ],
      [
        "ER",
        -9.317575862586937
      ],
      [
        "受",
        -9.31807632220501
      ],
      [
        "国民",
        -9.318450539959732
      ],
      [
        "主に",
        -9.319059714427482
      ],
      [
        "メイン",
        -9.319317887303605
      ],
      [
        "韓国",
        -9.319977441895238
      ],
      [
        "出身の",
        -9.320044676780116
      ],
      [
        "思",
        -9.320098773609507
      ],
      [
        "額",
        -9.32018509687455
      ],
      [
        "社長",
        -9.32021762311014
      ],
      [
        "以来",
        -9.321369393349245
      ],
      [
        "称",
        -9.322290412692153
      ],
      [
        "子供",
        -9.322617753312354
      ],
      [
        "電気",
        -9.323845416592325
      ],
      [
        "編集",
        -9.324100031082814
      ],
      [
        "ろう",
        -9.324746931358078
      ],
      [
        "帝",
        -9.32483071410724
      ],
      [
        "メディア",
        -9.325764263461217
      ],
      [
        "防",
        -9.325926068010666
      ],
      [
        "とき",
        -9.326206639302887
      ],
      [
        "弁",
        -9.326294014868107
      ],
      [
        "などを",
        -9.32789621492394
      ],
      [
        "難",
        -9.328704929570641
      ],
      [
        "服",
        -9.32956857382183
      ],
      [
        "まり",
        -9.330301068918732
      ],
      [
        "養",
        -9.330342050243578
      ],
      [
        "サイト",
        -9.332027117733988
      ],
      [
        "理由",
        -9.332321354107274
      ],
      [
        "ソフト",
        -9.332697761808372
      ],
      [
        "教授",
        -9.333163126764672
      ],
      [
        "礼",
        -9.334090850521902
      ],
      [
        "効果",
        -9.334709259239947
      ],
      [
        "変化",
        -9.33689983388226
      ],
      [
        "毛",
        -9.3385428309773
      ],
      [
        "短",
        -9.338825554174475
      ],
      [
        "ベン",
        -9.338866685335152
      ],
      [
        "モー",
        -9.339529265046416
      ],
      [
        "細",
        -9.339651768366162
      ],
      [
        "入れ",
        -9.339717303754243
      ],
      [
        "込み",
        -9.340323092974003
      ],
      [
        "1983年",
        -9.340386393602158
      ],
      [
        "形式",
        -9.340558390555865
      ],
      [
        "銀",
        -9.341426456035718
      ],
      [
        "以下の",
        -9.34149963488318
      ],
      [
        "対応",
        -9.34173020917275
      ],
      [
        "と同じ",
        -9.341938979214463
      ],
      [
        "舞",
        -9.342912284562903
      ],
      [
        "を務めた",
        -9.343177012493937
      ],
      [
        "観光",
        -9.343265048666174
      ],
      [
        "納",
        -9.343472060751747
      ],
      [
        "鈴木",
        -9.345028961785147
      ],
      [
        "犬",
        -9.345034825992704
      ],
      [
        "雨",
        -9.345867271008087
      ],
      [
        "1982年",
        -9.346404162877336
      ],
      [
        "時の",
        -9.346607831828127
      ],
      [
        "ケー",
        -9.347357697785379
      ],
      [
        "ント",
        -9.34876665306559
      ],
      [
        "参",
        -9.348782956356054
      ],
      [
        "1980年",
        -9.34924088867811
      ],
      [
        "域",
        -9.34960857613562
      ],
      [
        "精",
        -9.35025459329854
      ],
      [
        "書房",
        -9.350384274267975
      ],
      [
        "90",
        -9.35128987472747
      ],
      [
        "姫",
        -9.351328765134873
      ],
      [
        "魚",
        -9.3521233880406
      ],
      [
        "クラ",
        -9.352287734689131
      ],
      [
        "だったが",
        -9.352505624111327
      ],
      [
        "のある",
        -9.35282305055886
      ],
      [
        "解説",
        -9.353117180791541
      ],
      [
        "失",
        -9.353344946267546
      ],
      [
        "雑誌",
        -9.35439949949007
      ],
      [
        "学生",
        -9.355745777008858
      ],
      [
        "工事",
        -9.357113731330207
      ],
      [
        "雅",
        -9.358584126297384
      ],
      [
        "地理",
        -9.3592894268378
      ],
      [
        "状況",
        -9.359385071401158
      ],
      [
        "No",
        -9.359495754827261
      ],
      [
        "楽曲",
        -9.359689241525517
      ],
      [
        "酒",
        -9.360295027765241
      ],
      [
        "200",
        -9.360371669446247
      ],
      [
        "2人",
        -9.360433034648363
      ],
      [
        "DE",
        -9.360687551664551
      ],
      [
        "得",
        -9.361931311029487
      ],
      [
        "制度",
        -9.362437486625039
      ],
      [
        "幕",
        -9.36267825504756
      ],
      [
        "ソー",
        -9.363120420042398
      ],
      [
        "議会",
        -9.363380862347446
      ],
      [
        "れた",
        -9.363669294003383
      ],
      [
        "上げ",
        -9.363881420939467
      ],
      [
        "ビデオ",
        -9.364887353450074
      ],
      [
        "人口",
        -9.365575230271302
      ],
      [
        "シア",
        -9.365876007399006
      ],
      [
        "トー",
        -9.365916136234985
      ],
      [
        "方面",
        -9.366868227665103
      ],
      [
        "上の",
        -9.36707972175329
      ],
      [
        "系統",
        -9.367680739214222
      ],
      [
        "CM",
        -9.37003969140332
      ],
      [
        "乱",
        -9.37055741861264
      ],
      [
        "善",
        -9.370882184063083
      ],
      [
        "新聞",
        -9.371897071825256
      ],
      [
        "減",
        -9.372146775695711
      ],
      [
        "骨",
        -9.372289619595126
      ],
      [
        "整備",
        -9.372956556355977
      ],
      [
        "欠",
        -9.374232282525758
      ],
      [
        "陣",
        -9.374479438560238
      ],
      [
        "仲",
        -9.374510711150126
      ],
      [
        "銃",
        -9.376339401418614
      ],
      [
        "TA",
        -9.377425734269607
      ],
      [
        "32",
        -9.379225972366738
      ],
      [
        "j",
        -9.379532739311403
      ],
      [
        "こともある",
        -9.379971033539245
      ],
      [
        "限定",
        -9.380193814850047
      ],
      [
        "彼女",
        -9.380656579646251
      ],
      [
        "引",
        -9.384664986145268
      ],
      [
        "装置",
        -9.385232921502608
      ],
      [
        "タイプ",
        -9.387759176582243
      ],
      [
        "連載",
        -9.388054623914412
      ],
      [
        "自身の",
        -9.388501532017585
      ],
      [
        "孝",
        -9.388815461516336
      ],
      [
        "建築",
        -9.388904267829435
      ],
      [
        "兼",
        -9.38912969101738
      ],
      [
        "ユー",
        -9.389179525305288
      ],
      [
        "宇",
        -9.389894910435501
      ],
      [
        "対象",
        -9.390847934913358
      ],
      [
        "ダム",
        -9.391110172121996
      ],
      [
        "ie",
        -9.391380485778024
      ],
      [
        "1981年",
        -9.3924696190516
      ],
      [
        "SP",
        -9.392532271842574
      ],
      [
        "am",
        -9.392663406371437
      ],
      [
        "ri",
        -9.392823420410892
      ],
      [
        "ミュージック",
        -9.39293446370868
      ],
      [
        "経験",
        -9.393121457233654
      ],
      [
        "持",
        -9.393972519486192
      ],
      [
        "AT",
        -9.395080179601736
      ],
      [
        "要",
        -9.395285106532612
      ],
      [
        "空港",
        -9.396262124700607
      ],
      [
        "いい",
        -9.397064376413379
      ],
      [
        "除",
        -9.397246618262109
      ],
      [
        "スク",
        -9.397338191778235
      ],
      [
        "甲",
        -9.398109118506781
      ],
      [
        "陸",
        -9.399756721729212
      ],
      [
        "際",
        -9.401178469225323
      ],
      [
        "記事",
        -9.40178932555569
      ],
      [
        "事務所",
        -9.401983347844984
      ],
      [
        "議員",
        -9.402270146960454
      ],
      [
        "ペン",
        -9.40277030600618
      ],
      [
        "最大",
        -9.404498316546468
      ],
      [
        "していたが",
        -9.40516376618048
      ],
      [
        "歌手",
        -9.40566697594593
      ],
      [
        "にあった",
        -9.406200133312547
      ],
      [
        "内に",
        -9.406807634410304
      ],
      [
        "ツアー",
        -9.406855226804897
      ],
      [
        "向け",
        -9.407168758629012
      ],
      [
        "自分の",
        -9.407286493042934
      ],
      [
        "オープン",
        -9.408117655475051
      ],
      [
        "容",
        -9.408219012700394
      ],
      [
        "後は",
        -9.409342497989593
      ],
      [
        "ブリ",
        -9.409736584307627
      ],
      [
        "温泉",
        -9.410167354838823
      ],
      [
        "であったが",
        -9.410226614493222
      ],
      [
        "バック",
        -9.411174823031573
      ],
      [
        "活躍",
        -9.411657838689178
      ],
      [
        "仏",
        -9.411989513136614
      ],
      [
        "これらの",
        -9.41208741311133
      ],
      [
        "王国",
        -9.413154456403188
      ],
      [
        "イー",
        -9.414171683102873
      ],
      [
        "営業",
        -9.414302629092994
      ],
      [
        "核",
        -9.414531510896305
      ],
      [
        "プレ",
        -9.414907278285861
      ],
      [
        "業務",
        -9.41528695156981
      ],
      [
        "つけ",
        -9.416204493099857
      ],
      [
        "かつて",
        -9.41681413101535
      ],
      [
        "おり",
        -9.417619101591564
      ],
      [
        "当初は",
        -9.418282804762796
      ],
      [
        "圧",
        -9.418598424354881
      ],
      [
        "内で",
        -9.41919319511331
      ],
      [
        "ショー",
        -9.419231788649343
      ],
      [
        "専用",
        -9.419334199655118
      ],
      [
        "掲載",
        -9.420239503000893
      ],
      [
        "1979年",
        -9.420917780469827
      ],
      [
        "としての",
        -9.420966235120812
      ],
      [
        "言語",
        -9.421425192121147
      ],
      [
        "割",
        -9.421436134366482
      ],
      [
        "行政",
        -9.421679969369254
      ],
      [
        "護",
        -9.42212324856742
      ],
      [
        "題",
        -9.422475031448394
      ],
      [
        "人が",
        -9.422597316609329
      ],
      [
        "大阪府",
        -9.423323331598718
      ],
      [
        "専門",
        -9.424298636762396
      ],
      [
        "料理",
        -9.424407278546168
      ],
      [
        "湯",
        -9.424456129289567
      ],
      [
        "国立",
        -9.42467561405225
      ],
      [
        "アイドル",
        -9.42495676466439
      ],
      [
        "かい",
        -9.426481993132997
      ],
      [
        "CA",
        -9.426608846833329
      ],
      [
        "SA",
        -9.426670700560411
      ],
      [
        "浩",
        -9.426913585265854
      ],
      [
        "大臣",
        -9.427243789791433
      ],
      [
        "頼",
        -9.427440776714622
      ],
      [
        "れば",
        -9.427561739589517
      ],
      [
        "ヴェ",
        -9.42823666246861
      ],
      [
        "成立",
        -9.429074469210963
      ],
      [
        "47",
        -9.429193235284062
      ],
      [
        "房",
        -9.429872362316717
      ],
      [
        "佐藤",
        -9.42998620487836
      ],
      [
        "ウェイ",
        -9.432666452173049
      ],
      [
        "なり",
        -9.433042789335072
      ],
      [
        "傷",
        -9.43330926487922
      ],
      [
        "老",
        -9.433543000159
      ],
      [
        "田中",
        -9.433737847872168
      ],
      [
        "もう",
        -9.434883254868
      ],
      [
        "ホテル",
        -9.43506644432389
      ],
      [
        "id",
        -9.435233406580155
      ],
      [
        "運用",
        -9.435560489804432
      ],
      [
        "ボン",
        -9.435586751874949
      ],
      [
        "33",
        -9.436323239553394
      ],
      [
        "ゾ",
        -9.437320080076026
      ],
      [
        "ジン",
        -9.437754004639059
      ],
      [
        "シェ",
        -9.437846512413143
      ],
      [
        "トロ",
        -9.438707708355539
      ],
      [
        "なし",
        -9.43893521634936
      ],
      [
        "動物",
        -9.43925466108853
      ],
      [
        "読",
        -9.439478596474174
      ],
      [
        "幅",
        -9.43966231599766
      ],
      [
        "36",
        -9.440970660655912
      ],
      [
        "ナン",
        -9.44197950496708
      ],
      [
        "旅",
        -9.44212323047451
      ],
      [
        "酸",
        -9.442732672827253
      ],
      [
        "ジャン",
        -9.443196419109118
      ],
      [
        "名称",
        -9.443427114856483
      ],
      [
        "スキー",
        -9.443832394731357
      ],
      [
        "保護",
        -9.44384633330164
      ],
      [
        "学科",
        -9.443906168758328
      ],
      [
        "ラス",
        -9.444101632410542
      ],
      [
        "表現",
        -9.444395245264468
      ],
      [
        "可能",
        -9.444489210470177
      ],
      [
        "などが",
        -9.44457736981683
      ],
      [
        "刑事",
        -9.444980575909637
      ],
      [
        "引き",
        -9.44506670891392
      ],
      [
        "人気",
        -9.44511698920559
      ],
      [
        "医療",
        -9.446462753883509
      ],
      [
        "案",
        -9.447672190063468
      ],
      [
        "距離",
        -9.44835709051663
      ],
      [
        "ent",
        -9.448363865594354
      ],
      [
        "縁",
        -9.448477788291276
      ],
      [
        "を開始",
        -9.448913964626929
      ],
      [
        "そのため",
        -9.449281088486517
      ],
      [
        "などで",
        -9.449368149837229
      ],
      [
        "ワールド",
        -9.449596065604426
      ],
      [
        "国の",
        -9.450532776662582
      ],
      [
        "のち",
        -9.450853990220276
      ],
      [
        "殿",
        -9.451294153715123
      ],
      [
        "博士",
        -9.452212229724696
      ],
      [
        "戦で",
        -9.452296500963133
      ],
      [
        "闘",
        -9.452843840611731
      ],
      [
        "男性",
        -9.453202799931425
      ],
      [
        "スペイン",
        -9.454387891192875
      ],
      [
        "本部",
        -9.45479492445496
      ],
      [
        "射",
        -9.455622731597948
      ],
      [
        "ミニ",
        -9.455658202968499
      ],
      [
        "最後の",
        -9.456553758606779
      ],
      [
        "が多い",
        -9.45677031402863
      ],
      [
        "レギュラー",
        -9.45691253291565
      ],
      [
        "消",
        -9.458020856952281
      ],
      [
        "製品",
        -9.459515772818673
      ],
      [
        "セット",
        -9.459671518227267
      ],
      [
        "壁",
        -9.460251098871323
      ],
      [
        "者は",
        -9.460390691546946
      ],
      [
        "寿",
        -9.46047977745395
      ],
      [
        "スタン",
        -9.460594586600957
      ],
      [
        "ボール",
        -9.460609223753886
      ],
      [
        "ニコ",
        -9.46068578465298
      ],
      [
        "1972年",
        -9.460789099794681
      ],
      [
        "確認",
        -9.460933854140572
      ],
      [
        "SE",
        -9.461260977601189
      ],
      [
        "完成",
        -9.461458365092364
      ],
      [
        "1978年",
        -9.461482544371123
      ],
      [
        "ピー",
        -9.462478717459856
      ],
      [
        "ドー",
        -9.46254023148763
      ],
      [
        "とう",
        -9.463780045485173
      ],
      [
        "ドン",
        -9.463885005172367
      ],
      [
        "アス",
        -9.464415724854046
      ],
      [
        "38",
        -9.464881270069947
      ],
      [
        "ローマ",
        -9.465610575303598
      ],
      [
        "かけ",
        -9.465731679769812
      ],
      [
        "広島",
        -9.4658309046511
      ],
      [
        "せず",
        -9.466305982415872
      ],
      [
        "これを",
        -9.466477729475843
      ],
      [
        "周辺",
        -9.466775597025595
      ],
      [
        "新しい",
        -9.467081973924696
      ],
      [
        "ゆう",
        -9.467366063372959
      ],
      [
        "強い",
        -9.467480010225472
      ],
      [
        "系列",
        -9.467492204523486
      ],
      [
        "できない",
        -9.467859103812268
      ],
      [
        "階",
        -9.468445628273514
      ],
      [
        "静",
        -9.468738715413542
      ],
      [
        "関東",
        -9.468776422532246
      ],
      [
        "子の",
        -9.469580097212745
      ],
      [
        "市民",
        -9.469914153414527
      ],
      [
        "トップ",
        -9.470229169505016
      ],
      [
        "リス",
        -9.470333032893315
      ],
      [
        "番号",
        -9.470423051836542
      ],
      [
        "秒",
        -9.470672378706709
      ],
      [
        "間の",
        -9.470783818538822
      ],
      [
        "かつ",
        -9.470880540494461
      ],
      [
        "共和国",
        -9.470943520804372
      ],
      [
        "通常",
        -9.471670108377044
      ],
      [
        "37",
        -9.471793608881244
      ],
      [
        "腕",
        -9.471942935261216
      ],
      [
        "情",
        -9.472208202000445
      ],
      [
        "輸送",
        -9.472212109165746
      ],
      [
        "由",
        -9.472472591404237
      ],
      [
        "cm",
        -9.472932986606624
      ],
      [
        "ものである",
        -9.474531433408794
      ],
      [
        "テル",
        -9.474588515998247
      ],
      [
        "炎",
        -9.474916383995104
      ],
      [
        "沿革",
        -9.47506642757309
      ],
      [
        "レコード",
        -9.476150031942009
      ],
      [
        "冷",
        -9.476407349587786
      ],
      [
        "茂",
        -9.47643699821201
      ],
      [
        "名は",
        -9.47652028778805
      ],
      [
        "東北",
        -9.476543821157698
      ],
      [
        "ジャパン",
        -9.477586777855974
      ],
      [
        "帰",
        -9.478009619530685
      ],
      [
        "ング",
        -9.478564115073743
      ],
      [
        "砂",
        -9.478895757708841
      ],
      [
        "とし",
        -9.479168679135634
      ],
      [
        "以上の",
        -9.479221553678716
      ],
      [
        "個",
        -9.479290888894324
      ],
      [
        "少",
        -9.479574472070693
      ],
      [
        "中村",
        -9.479772323708389
      ],
      [
        "あるいは",
        -9.48029741794159
      ],
      [
        "グル",
        -9.480349493115632
      ],
      [
        "としている",
        -9.480627777849335
      ],
      [
        "グリ",
        -9.481984404079663
      ],
      [
        "ワー",
        -9.482337219561886
      ],
      [
        "飛行",
        -9.48261430592384
      ],
      [
        "ヴァン",
        -9.482908247565478
      ],
      [
        "景",
        -9.48564216294402
      ],
      [
        "タル",
        -9.485918890147726
      ],
      [
        "プレイ",
        -9.485964898244886
      ],
      [
        "可",
        -9.486966909903877
      ],
      [
        "シティ",
        -9.48697833068019
      ],
      [
        "店舗",
        -9.487174861979232
      ],
      [
        "ヴァー",
        -9.48871673645231
      ],
      [
        "等の",
        -9.48935880614454
      ],
      [
        "襲",
        -9.489427831870577
      ],
      [
        "詩",
        -9.490204378700557
      ],
      [
        "緑",
        -9.491217386619187
      ],
      [
        "ガス",
        -9.492096107093447
      ],
      [
        "me",
        -9.492601868730503
      ],
      [
        "オル",
        -9.492797198932209
      ],
      [
        "ブルー",
        -9.492867537320004
      ],
      [
        "1975年",
        -9.493003422800234
      ],
      [
        "レッド",
        -9.493662279463503
      ],
      [
        "刊",
        -9.494425182798647
      ],
      [
        "1973年",
        -9.494640063847145
      ],
      [
        "テレ",
        -9.495582448356886
      ],
      [
        "イル",
        -9.495801306408115
      ],
      [
        "im",
        -9.49643098330789
      ],
      [
        "1976年",
        -9.498310967625507
      ],
      [
        "録",
        -9.499942178055212
      ],
      [
        "チュ",
        -9.499963296306568
      ],
      [
        "パリ",
        -9.50002495449027
      ],
      [
        "アナウンサー",
        -9.501002017846986
      ],
      [
        "メーカー",
        -9.501150929872018
      ],
      [
        "ine",
        -9.501539963984692
      ],
      [
        "不明",
        -9.501796550322169
      ],
      [
        "言葉",
        -9.501938618528076
      ],
      [
        "政策",
        -9.5024751229798
      ],
      [
        "デル",
        -9.502828416263284
      ],
      [
        "31",
        -9.502920028038355
      ],
      [
        "台湾",
        -9.503642936096595
      ],
      [
        "持ち",
        -9.50450509096207
      ],
      [
        "受け",
        -9.505407067928916
      ],
      [
        "以外の",
        -9.505428442048293
      ],
      [
        "いている",
        -9.505593547509365
      ],
      [
        "プロジェクト",
        -9.506074748422993
      ],
      [
        "条件",
        -9.506419541644608
      ],
      [
        "ly",
        -9.507127857641963
      ],
      [
        "輝",
        -9.507252377425248
      ],
      [
        "フレ",
        -9.507422701115534
      ],
      [
        "期間",
        -9.507530556640528
      ],
      [
        "LE",
        -9.507844878095575
      ],
      [
        "ゴー",
        -9.508040106642355
      ],
      [
        "漢",
        -9.50804064676207
      ],
      [
        "アナ",
        -9.509325577638885
      ],
      [
        "高い",
        -9.509537090726093
      ],
      [
        "クル",
        -9.509938840169879
      ],
      [
        "肉",
        -9.509984184991302
      ],
      [
        "撃",
        -9.5105054262015
      ],
      [
        "1977年",
        -9.510536477572126
      ],
      [
        "飛",
        -9.511796294221554
      ],
      [
        "運",
        -9.512522280897382
      ],
      [
        "1号",
        -9.512617611559602
      ],
      [
        "誠",
        -9.512930626120385
      ],
      [
        "前の",
        -9.513041801633216
      ],
      [
        "則",
        -9.513346394078146
      ],
      [
        "示",
        -9.513470263810705
      ],
      [
        "余",
        -9.513905275122646
      ],
      [
        "学会",
        -9.514242244508367
      ],
      [
        "植物",
        -9.514478420845608
      ],
      [
        "指導",
        -9.517121528592533
      ],
      [
        "せん",
        -9.517334025716226
      ],
      [
        "エス",
        -9.518663086350294
      ],
      [
        "1974年",
        -9.51932566733278
      ],
      [
        "付き",
        -9.519777487149916
      ],
      [
        "第6",
        -9.519990686731964
      ],
      [
        "鶴",
        -9.520255753184383
      ],
      [
        "BA",
        -9.520773917639183
      ],
      [
        "ill",
        -9.52095366609893
      ],
      [
        "までは",
        -9.52101432764206
      ],
      [
        "本線",
        -9.521060011682687
      ],
      [
        "ut",
        -9.52252427345131
      ],
      [
        "ゲン",
        -9.522971260580379
      ],
      [
        "杉",
        -9.52304224172651
      ],
      [
        "江戸",
        -9.52329110260498
      ],
      [
        "ON",
        -9.523328502226926
      ],
      [
        "ブレ",
        -9.523697623863345
      ],
      [
        "適",
        -9.524024070055434
      ],
      [
        "刀",
        -9.52534015302749
      ],
      [
        "na",
        -9.526088399857535
      ],
      [
        "エイ",
        -9.526481132970728
      ],
      [
        "style",
        -9.527081857107222
      ],
      [
        "プリ",
        -9.527420870277851
      ],
      [
        "ストーリー",
        -9.527991469430289
      ],
      [
        "ロス",
        -9.528061802859309
      ],
      [
        "図書館",
        -9.52910532968135
      ],
      [
        "1970年",
        -9.529320962224439
      ],
      [
        "衣",
        -9.530155666253085
      ],
      [
        "であるが",
        -9.530462180333872
      ],
      [
        "op",
        -9.531608370727826
      ],
      [
        "激",
        -9.532951830909337
      ],
      [
        "脳",
        -9.5330059589812
      ],
      [
        "リリース",
        -9.533296703010066
      ],
      [
        "柄",
        -9.533538928814396
      ],
      [
        "エー",
        -9.534063689053337
      ],
      [
        "電子",
        -9.534590176668864
      ],
      [
        "ブランド",
        -9.534794571764337
      ],
      [
        "出し",
        -9.535014063236327
      ],
      [
        "料",
        -9.53510906166399
      ],
      [
        "辺",
        -9.535125723707212
      ],
      [
        "髪",
        -9.535221696748424
      ],
      [
        "ce",
        -9.535894144283002
      ],
      [
        "der",
        -9.536316202707876
      ],
      [
        "行き",
        -9.536329875802231
      ],
      [
        "De",
        -9.53659559533494
      ],
      [
        "投",
        -9.536798254649792
      ],
      [
        "将軍",
        -9.537111557938545
      ],
      [
        "受賞",
        -9.537590954734608
      ],
      [
        "展",
        -9.537959987074375
      ],
      [
        "ミン",
        -9.53822600117823
      ],
      [
        "に変更",
        -9.539036088714544
      ],
      [
        "けん",
        -9.539809881176234
      ],
      [
        "フォー",
        -9.540511786240815
      ],
      [
        "においては",
        -9.54065906677717
      ],
      [
        "神戸",
        -9.541006863589448
      ],
      [
        "拡大",
        -9.541083601447259
      ],
      [
        "精神",
        -9.541483645755411
      ],
      [
        "ことがある",
        -9.541973217511467
      ],
      [
        "振",
        -9.5420389612349
      ],
      [
        "10年",
        -9.542096936614913
      ],
      [
        "34",
        -9.542108266253091
      ],
      [
        "者が",
        -9.542652008195216
      ],
      [
        "生徒",
        -9.54363856651589
      ],
      [
        "弟",
        -9.544614958477242
      ],
      [
        "man",
        -9.54467195649276
      ],
      [
        "ゲスト",
        -9.544726226540636
      ],
      [
        "1971年",
        -9.545369633052088
      ],
      [
        "2位",
        -9.545938315727412
      ],
      [
        "co",
        -9.546413587735634
      ],
      [
        "祖",
        -9.546665970931794
      ],
      [
        "のための",
        -9.546883336183116
      ],
      [
        "続",
        -9.547423123140096
      ],
      [
        "方式",
        -9.547562697489308
      ],
      [
        "必要",
        -9.547822894639841
      ],
      [
        "シャー",
        -9.548116959746512
      ],
      [
        "本人",
        -9.548350097811173
      ],
      [
        "富士",
        -9.548360379409047
      ],
      [
        "離",
        -9.548415098049237
      ],
      [
        "3人",
        -9.549518975892479
      ],
      [
        "2回",
        -9.550995698302696
      ],
      [
        "リオ",
        -9.551306267745783
      ],
      [
        "終",
        -9.55219972125564
      ],
      [
        "ul",
        -9.553551158661808
      ],
      [
        "を参照",
        -9.553678427045055
      ],
      [
        "過",
        -9.553876684440363
      ],
      [
        "連合",
        -9.55432888001248
      ],
      [
        "被",
        -9.554485968094587
      ],
      [
        "昌",
        -9.554696064628038
      ],
      [
        "追",
        -9.55577993964914
      ],
      [
        "罪",
        -9.557399041372285
      ],
      [
        "é",
        -9.557684866718674
      ],
      [
        "らず",
        -9.55782204797192
      ],
      [
        "材",
        -9.55850440939673
      ],
      [
        "慶",
        -9.558743937237264
      ],
      [
        "デジタル",
        -9.558977582014
      ],
      [
        "展開",
        -9.560138555603505
      ],
      [
        "連邦",
        -9.560420822760559
      ],
      [
        "引退",
        -9.560709863322755
      ],
      [
        "グラ",
        -9.562733432110472
      ],
      [
        "冬",
        -9.564189862454656
      ],
      [
        "するために",
        -9.565121786142404
      ],
      [
        "関西",
        -9.565254709053729
      ],
      [
        "化学",
        -9.565472458631302
      ],
      [
        "日本語",
        -9.56585670371398
      ],
      [
        "ME",
        -9.566225471300443
      ],
      [
        "逆",
        -9.566500492812986
      ],
      [
        "sh",
        -9.566679093940131
      ],
      [
        "つか",
        -9.567476064395887
      ],
      [
        "来歴",
        -9.568168434680981
      ],
      [
        "付近",
        -9.568653974156911
      ],
      [
        "盛",
        -9.56918888469116
      ],
      [
        "軍の",
        -9.569360013137214
      ],
      [
        "ハウス",
        -9.569540735656652
      ],
      [
        "ロード",
        -9.570105216332367
      ],
      [
        "の大",
        -9.57024720185699
      ],
      [
        "1969年",
        -9.57067753937423
      ],
      [
        "思い",
        -9.570682767424785
      ],
      [
        "の一つ",
        -9.570857086441599
      ],
      [
        "を受けて",
        -9.571215914262888
      ],
      [
        "問",
        -9.571334275910527
      ],
      [
        "印",
        -9.571670454840064
      ],
      [
        "週",
        -9.572060081245002
      ],
      [
        "応",
        -9.572251656517619
      ],
      [
        "3位",
        -9.572560919036123
      ],
      [
        "mo",
        -9.572756468978907
      ],
      [
        "商品",
        -9.572773111241546
      ],
      [
        "競走",
        -9.57284465291196
      ],
      [
        "中継",
        -9.57333813349581
      ],
      [
        "算",
        -9.573548384921232
      ],
      [
        "実施",
        -9.574060708015887
      ],
      [
        "発展",
        -9.57415428011929
      ],
      [
        "南部",
        -9.574563569164052
      ],
      [
        "結婚",
        -9.57498207171559
      ],
      [
        "博物館",
        -9.575936251111251
      ],
      [
        "次郎",
        -9.57595560872303
      ],
      [
        "朝鮮",
        -9.576244600342147
      ],
      [
        "ティング",
        -9.576439481457106
      ],
      [
        "ベース",
        -9.577150126516772
      ],
      [
        "ギター",
        -9.577762353067554
      ],
      [
        "ver",
        -9.5780762397275
      ],
      [
        "になって",
        -9.578213432458751
      ],
      [
        "rows",
        -9.578283024301772
      ],
      [
        "線の",
        -9.578379443871771
      ],
      [
        "彼",
        -9.578404722302821
      ],
      [
        "FM",
        -9.578688329045276
      ],
      [
        "始",
        -9.578839584903728
      ],
      [
        "生き",
        -9.580738956310894
      ],
      [
        "反対",
        -9.581018819565802
      ],
      [
        "普通",
        -9.581119869402833
      ],
      [
        "愛知県",
        -9.58173348447032
      ],
      [
        "vi",
        -9.5827632156192
      ],
      [
        "得点",
        -9.58277980578142
      ],
      [
        "皇",
        -9.582782225814599
      ],
      [
        "を取り",
        -9.583136165080717
      ],
      [
        "だと",
        -9.583509552977265
      ],
      [
        "の娘",
        -9.583650906289447
      ],
      [
        "山田",
        -9.584312528174934
      ],
      [
        "丘",
        -9.584399293018034
      ],
      [
        "di",
        -9.584719958983454
      ],
      [
        "アラ",
        -9.584794380527118
      ],
      [
        "39",
        -9.585157408312597
      ],
      [
        "com",
        -9.585209403533538
      ],
      [
        "時期",
        -9.586354886038748
      ],
      [
        "影",
        -9.586366074608918
      ],
      [
        "テレビ東京",
        -9.587041131136004
      ],
      [
        "連盟",
        -9.5871263351269
      ],
      [
        "双",
        -9.588931812419379
      ],
      [
        "アク",
        -9.588948521840708
      ],
      [
        "Le",
        -9.589458645742045
      ],
      [
        "戻",
        -9.589534472636036
      ],
      [
        "影響",
        -9.590886938191257
      ],
      [
        "める",
        -9.591341525853586
      ],
      [
        "件",
        -9.591900120243803
      ],
      [
        "評",
        -9.592401853466736
      ],
      [
        "防衛",
        -9.592417583696582
      ],
      [
        "劇",
        -9.592501371171677
      ],
      [
        "KA",
        -9.592517536745854
      ],
      [
        "ta",
        -9.592832320615097
      ],
      [
        "デイ",
        -9.59330275645616
      ],
      [
        "姓",
        -9.593491939897113
      ],
      [
        "表示",
        -9.593565992549978
      ],
      [
        "魔法",
        -9.59371821457651
      ],
      [
        "なら",
        -9.593752462151075
      ],
      [
        "症",
        -9.593788523137421
      ],
      [
        "寄",
        -9.593829338103832
      ],
      [
        "与",
        -9.594427835074393
      ],
      [
        "all",
        -9.594462282943516
      ],
      [
        "するため",
        -9.594728875083195
      ],
      [
        "ニック",
        -9.59539082665837
      ],
      [
        "住民",
        -9.596121109197098
      ],
      [
        "ほぼ",
        -9.59619958217633
      ],
      [
        "費",
        -9.596260994082474
      ],
      [
        "CO",
        -9.596347399312664
      ],
      [
        "ポイント",
        -9.596364585782725
      ],
      [
        "分け",
        -9.596579422230631
      ],
      [
        "東海",
        -9.597078369774719
      ],
      [
        "プル",
        -9.597958161935772
      ],
      [
        "バラ",
        -9.59824962189474
      ],
      [
        "枝",
        -9.598894880444771
      ],
      [
        "講談社",
        -9.59910286795018
      ],
      [
        "ッキー",
        -9.599243560024794
      ],
      [
        "吉田",
        -9.600795183507822
      ],
      [
        "BO",
        -9.601211151615226
      ],
      [
        "AL",
        -9.602557724565655
      ],
      [
        "直接",
        -9.603922399961894
      ],
      [
        "300",
        -9.60456000042818
      ],
      [
        "鎮",
        -9.604562551043534
      ],
      [
        "EN",
        -9.60475054877085
      ],
      [
        "初期",
        -9.605388698632511
      ],
      [
        "羅",
        -9.605516330384742
      ],
      [
        "議",
        -9.607199567614188
      ],
      [
        "兄弟",
        -9.60723645183316
      ],
      [
        "以後",
        -9.60726458075742
      ],
      [
        "Ma",
        -9.60795661235184
      ],
      [
        "支",
        -9.608352682166812
      ],
      [
        "75",
        -9.608853077789517
      ],
      [
        "築",
        -9.609300640782818
      ],
      [
        "パーク",
        -9.609325729582986
      ],
      [
        "ロンドン",
        -9.609511802953678
      ],
      [
        "1968年",
        -9.609623353516268
      ],
      [
        "KO",
        -9.610026459022968
      ],
      [
        "01",
        -9.610192799506784
      ],
      [
        "46",
        -9.610535483025032
      ],
      [
        "ブー",
        -9.611183473696011
      ],
      [
        "によると",
        -9.611714562879635
      ],
      [
        "亀",
        -9.612847595597737
      ],
      [
        "後半",
        -9.612972605883286
      ],
      [
        "マーク",
        -9.613332210706455
      ],
      [
        "age",
        -9.613673191013083
      ],
      [
        "大きく",
        -9.613754062635007
      ],
      [
        "近く",
        -9.614199232136267
      ],
      [
        "ell",
        -9.6145838955995
      ],
      [
        "書き",
        -9.614685163340065
      ],
      [
        "数は",
        -9.615467995942677
      ],
      [
        "を行い",
        -9.61658563278091
      ],
      [
        "のアルバム",
        -9.616612714608374
      ],
      [
        "49",
        -9.616725699545746
      ],
      [
        "伝説",
        -9.617220256415562
      ],
      [
        "を中心に",
        -9.617789287258312
      ],
      [
        "第三",
        -9.617921340181445
      ],
      [
        "かわ",
        -9.618077620939546
      ],
      [
        "市場",
        -9.619002332020731
      ],
      [
        "弱",
        -9.619405922210424
      ],
      [
        "いち",
        -9.620041630247783
      ],
      [
        "彩",
        -9.620387171088229
      ],
      [
        "高橋",
        -9.620639056153998
      ],
      [
        "を持ち",
        -9.62097560637097
      ],
      [
        "温",
        -9.621300163046717
      ],
      [
        "Mo",
        -9.621482023659105
      ],
      [
        "準",
        -9.621532353125676
      ],
      [
        "全体",
        -9.621655736855397
      ],
      [
        "ヘル",
        -9.62242200633672
      ],
      [
        "油",
        -9.62248151468714
      ],
      [
        "したため",
        -9.62302330195618
      ],
      [
        "太陽",
        -9.6231737797311
      ],
      [
        "記載",
        -9.623206689834136
      ],
      [
        "メイ",
        -9.623402777315881
      ],
      [
        "習",
        -9.624192694789688
      ],
      [
        "やま",
        -9.624198329763543
      ],
      [
        "for",
        -9.624391066552597
      ],
      [
        "自ら",
        -9.62568669419618
      ],
      [
        "もあり",
        -9.62570064875283
      ],
      [
        "篇",
        -9.625917705749815
      ],
      [
        "シーン",
        -9.626170447175058
      ],
      [
        "AR",
        -9.626584924113688
      ],
      [
        "ドゥ",
        -9.626823938021492
      ],
      [
        "略",
        -9.628105205227621
      ],
      [
        "食べ",
        -9.628174582998858
      ],
      [
        "56",
        -9.628196784445507
      ],
      [
        "選択",
        -9.629127901297814
      ],
      [
        "つき",
        -9.629628283934359
      ],
      [
        "んでいる",
        -9.629665757318794
      ],
      [
        "遺",
        -9.629810059071442
      ],
      [
        "ビン",
        -9.629833301773317
      ],
      [
        "本社",
        -9.630083197930615
      ],
      [
        "かな",
        -9.630103810483018
      ],
      [
        "医学",
        -9.630197340739922
      ],
      [
        "牛",
        -9.63061762987039
      ],
      [
        "冠",
        -9.630640224783146
      ],
      [
        "ne",
        -9.630774370913556
      ],
      [
        "上で",
        -9.631605057009763
      ],
      [
        "ナイト",
        -9.63322631271019
      ],
      [
        "平均",
        -9.633241068777627
      ],
      [
        "声優",
        -9.633266265587919
      ],
      [
        "指揮",
        -9.634253502672887
      ],
      [
        "完全",
        -9.634266154611144
      ],
      [
        "特徴",
        -9.63428917151604
      ],
      [
        "MO",
        -9.634482261438231
      ],
      [
        "デー",
        -9.63513073193622
      ],
      [
        "装備",
        -9.635635432702843
      ],
      [
        "批判",
        -9.636626442939049
      ],
      [
        "浅",
        -9.636713585927561
      ],
      [
        "ment",
        -9.637141274230894
      ],
      [
        "旗",
        -9.637932179274438
      ],
      [
        "破壊",
        -9.638437742312645
      ],
      [
        "返",
        -9.63860601782474
      ],
      [
        "するが",
        -9.638836515809372
      ],
      [
        "芸",
        -9.638848635595965
      ],
      [
        "ッカー",
        -9.63982173814078
      ],
      [
        "イメージ",
        -9.64024477309493
      ],
      [
        "戦後",
        -9.640362140205593
      ],
      [
        "Co",
        -9.64064188392588
      ],
      [
        "武器",
        -9.641037895756348
      ],
      [
        "登",
        -9.642717303646368
      ],
      [
        "名前",
        -9.642861544606284
      ],
      [
        "ザン",
        -9.643238933246328
      ],
      [
        "1位",
        -9.643399405909024
      ],
      [
        "チャンネル",
        -9.643571407111262
      ],
      [
        "オス",
        -9.644099813070603
      ],
      [
        "報告",
        -9.644403159065744
      ],
      [
        "フォ",
        -9.644749429476287
      ],
      [
        "2000",
        -9.645353332149025
      ],
      [
        "限",
        -9.645518804695536
      ],
      [
        "テレビドラマ",
        -9.645923247393974
      ],
      [
        "脱",
        -9.646209024321276
      ],
      [
        "告",
        -9.647281714736954
      ],
      [
        "64",
        -9.647320766098838
      ],
      [
        "父親",
        -9.647357941831059
      ],
      [
        "ノン",
        -9.647573222788363
      ],
      [
        "ドラ",
        -9.647668348420545
      ],
      [
        "サル",
        -9.64781791364642
      ],
      [
        "細胞",
        -9.648879645054269
      ],
      [
        "SS",
        -9.648933039797567
      ],
      [
        "LA",
        -9.649536260736705
      ],
      [
        "カラ",
        -9.650256160319064
      ],
      [
        "tr",
        -9.65037778123633
      ],
      [
        "項",
        -9.65065128195412
      ],
      [
        "湾",
        -9.65099402263974
      ],
      [
        "当初",
        -9.651939842748835
      ],
      [
        "大学出身の人物",
        -9.652070215248777
      ],
      [
        "ユニット",
        -9.652102654445855
      ],
      [
        "の企業",
        -9.652160939909413
      ],
      [
        "荒",
        -9.652280426125982
      ],
      [
        "晴",
        -9.652674233548913
      ],
      [
        "希",
        -9.6530681871948
      ],
      [
        "かれ",
        -9.65321092864505
      ],
      [
        "山口",
        -9.653907895554466
      ],
      [
        "ポー",
        -9.653923881838455
      ],
      [
        "大型",
        -9.654260595245349
      ],
      [
        "時点で",
        -9.654542570792918
      ],
      [
        "流れ",
        -9.654954321531712
      ],
      [
        "兵庫県",
        -9.655775202671558
      ],
      [
        "奪",
        -9.655888626324108
      ],
      [
        "支配",
        -9.656213753124716
      ],
      [
        "収録曲",
        -9.65640689591113
      ],
      [
        "福岡",
        -9.658513057666223
      ],
      [
        "山本",
        -9.658582881518868
      ],
      [
        "したこと",
        -9.658725984796405
      ],
      [
        "RI",
        -9.658914005551546
      ],
      [
        "復活",
        -9.659676645448775
      ],
      [
        "クター",
        -9.660294389628772
      ],
      [
        "分類",
        -9.661280460340251
      ],
      [
        "ボー",
        -9.661948230015659
      ],
      [
        "です",
        -9.662458545049185
      ],
      [
        "死去",
        -9.66376626132118
      ],
      [
        "資料",
        -9.66392563294975
      ],
      [
        "54",
        -9.664291425945802
      ],
      [
        "聞",
        -9.664606952819746
      ],
      [
        "以降は",
        -9.664849564656123
      ],
      [
        "パル",
        -9.664909427706574
      ],
      [
        "44",
        -9.665018989082322
      ],
      [
        "カイ",
        -9.665761249526971
      ],
      [
        "したり",
        -9.665927535224784
      ],
      [
        "フラ",
        -9.666002862707128
      ],
      [
        "かん",
        -9.66626402421841
      ],
      [
        "ジョージ",
        -9.66669037816318
      ],
      [
        "立て",
        -9.666952288624215
      ],
      [
        "La",
        -9.667157087217108
      ],
      [
        "獲得",
        -9.668375222942657
      ],
      [
        "昭",
        -9.669190338582085
      ],
      [
        "全て",
        -9.669364896211844
      ],
      [
        "搭載",
        -9.669841333160434
      ],
      [
        "An",
        -9.670242956916097
      ],
      [
        "杯",
        -9.670255753450745
      ],
      [
        "のこと",
        -9.670312102052536
      ],
      [
        "基本",
        -9.670732613195867
      ],
      [
        "東映",
        -9.670795670807765
      ],
      [
        "埼玉県",
        -9.671440718358186
      ],
      [
        "メント",
        -9.671788358555409
      ],
      [
        "宏",
        -9.672114632188293
      ],
      [
        "競技",
        -9.672547136405653
      ],
      [
        "1967年",
        -9.673495419137558
      ],
      [
        "折",
        -9.673911102550036
      ],
      [
        "閉",
        -9.674861863464441
      ],
      [
        "なか",
        -9.674951029081464
      ],
      [
        "バージョン",
        -9.675610792485495
      ],
      [
        "形態",
        -9.676867320007533
      ],
      [
        "カナダ",
        -9.677375164769183
      ],
      [
        "ニューヨーク",
        -9.678069396183895
      ],
      [
        "性格",
        -9.678817253593222
      ],
      [
        "生物",
        -9.678833757359047
      ],
      [
        "ay",
        -9.679232176860197
      ],
      [
        "クト",
        -9.679491749014254
      ],
      [
        "by",
        -9.679879118233412
      ],
      [
        "暦",
        -9.679905282663213
      ],
      [
        "剤",
        -9.679940887592014
      ],
      [
        "機構",
        -9.680008606236532
      ],
      [
        "59",
        -9.681096239077103
      ],
      [
        "ケイ",
        -9.681420066630565
      ],
      [
        "予選",
        -9.6816238485887
      ],
      [
        "フォン",
        -9.682292822386607
      ],
      [
        "説明",
        -9.682303181864427
      ],
      [
        "はない",
        -9.682361147910841
      ],
      [
        "IT",
        -9.68236947496361
      ],
      [
        "GA",
        -9.683027752503373
      ],
      [
        "位置",
        -9.683039498878484
      ],
      [
        "紅",
        -9.683269607385856
      ],
      [
        "憲",
        -9.683625996508722
      ],
      [
        "イギリスの",
        -9.683669198178812
      ],
      [
        "デュ",
        -9.683903269430273
      ],
      [
        "小林",
        -9.683935782256437
      ],
      [
        "場合は",
        -9.683987434907062
      ],
      [
        "すべて",
        -9.684292951743448
      ],
      [
        "邦",
        -9.684744134128536
      ],
      [
        "翼",
        -9.685218841800136
      ],
      [
        "っており",
        -9.685316829486348
      ],
      [
        "らない",
        -9.685339817873688
      ],
      [
        "それを",
        -9.685510812712781
      ],
      [
        "異なる",
        -9.68628275623559
      ],
      [
        "を受ける",
        -9.687024409128794
      ],
      [
        "用の",
        -9.687565657904713
      ],
      [
        "ていない",
        -9.687760553905841
      ],
      [
        "実験",
        -9.688441750916088
      ],
      [
        "一方で",
        -9.688453587900446
      ],
      [
        "ことは",
        -9.688977465689504
      ],
      [
        "ガル",
        -9.689250675685942
      ],
      [
        "海外",
        -9.690393719173287
      ],
      [
        "済",
        -9.690578408758636
      ],
      [
        "仕事",
        -9.690928765599802
      ],
      [
        "全日本",
        -9.691011773083813
      ],
      [
        "古代",
        -9.691018558930311
      ],
      [
        "伸",
        -9.691537109928676
      ],
      [
        "自治体",
        -9.69156697379185
      ],
      [
        "神奈川県",
        -9.692048322052441
      ],
      [
        "部屋",
        -9.692911941515726
      ],
      [
        "ィ",
        -9.693298284898898
      ],
      [
        "ようになった",
        -9.693381687672284
      ],
      [
        "OS",
        -9.694231922148957
      ],
      [
        "クロス",
        -9.695776757035539
      ],
      [
        "報道",
        -9.695950959254318
      ],
      [
        "にとって",
        -9.696519507727531
      ],
      [
        "給",
        -9.696666378409525
      ],
      [
        "抜",
        -9.697575620842477
      ],
      [
        "エア",
        -9.698939063334604
      ],
      [
        "千葉",
        -9.699300071097507
      ],
      [
        "巡",
        -9.699758102852046
      ],
      [
        "BC",
        -9.699853303582113
      ],
      [
        "をもって",
        -9.699895798318824
      ],
      [
        "ぬ",
        -9.700246182150142
      ],
      [
        "創",
        -9.700477337811915
      ],
      [
        "no",
        -9.70062115536582
      ],
      [
        "ate",
        -9.700889946591078
      ],
      [
        "乃",
        -9.701438707474814
      ],
      [
        "清水",
        -9.701520574916639
      ],
      [
        "スカ",
        -9.701646362749596
      ],
      [
        "の戦い",
        -9.701712312932312
      ],
      [
        "我",
        -9.701786470591578
      ],
      [
        "の一",
        -9.702248157865371
      ],
      [
        "機械",
        -9.702930683871559
      ],
      [
        "しま",
        -9.70347818950276
      ],
      [
        "浮",
        -9.70428026902083
      ],
      [
        "ようになる",
        -9.70432094222397
      ],
      [
        "エネルギー",
        -9.705217176194065
      ],
      [
        "形で",
        -9.705579333019381
      ],
      [
        "穂",
        -9.705664423856247
      ],
      [
        "自動",
        -9.705963685817888
      ],
      [
        "延長",
        -9.70611993678032
      ],
      [
        "織",
        -9.706179868029563
      ],
      [
        "軍事",
        -9.706552671326873
      ],
      [
        "でもある",
        -9.706612602183984
      ],
      [
        "カラー",
        -9.706807206337784
      ],
      [
        "滝",
        -9.706849581312257
      ],
      [
        "尚",
        -9.707166629353784
      ],
      [
        "標準",
        -9.707253309224393
      ],
      [
        "ページ",
        -9.707609564437211
      ],
      [
        "豪",
        -9.708031791356692
      ],
      [
        "工学",
        -9.708432626061441
      ],
      [
        "セイ",
        -9.708470596377259
      ],
      [
        "刊行",
        -9.709144839418848
      ],
      [
        "梅",
        -9.709167087352393
      ],
      [
        "するなど",
        -9.709357878668706
      ],
      [
        "雷",
        -9.710108990169159
      ],
      [
        "ルート",
        -9.710125524610303
      ],
      [
        "交差点",
        -9.710365099987701
      ],
      [
        "労働",
        -9.710564988320929
      ],
      [
        "によれば",
        -9.710726254506222
      ],
      [
        "チン",
        -9.710835108079893
      ],
      [
        "一人",
        -9.710927663680497
      ],
      [
        "境",
        -9.711076973978445
      ],
      [
        "43",
        -9.711384913088036
      ],
      [
        "出す",
        -9.712689659182592
      ],
      [
        "獣",
        -9.712855909144222
      ],
      [
        "違い",
        -9.713141691995938
      ],
      [
        "らい",
        -9.713468501314523
      ],
      [
        "ほとんど",
        -9.713695576405103
      ],
      [
        "伊藤",
        -9.71385441338925
      ],
      [
        "倍",
        -9.714085292946484
      ],
      [
        "せい",
        -9.714126679438708
      ],
      [
        "新宿",
        -9.714341044157743
      ],
      [
        "そのまま",
        -9.71449997631694
      ],
      [
        "の楽曲",
        -9.714543722853573
      ],
      [
        "非常に",
        -9.715230108793344
      ],
      [
        "貞",
        -9.715506848910628
      ],
      [
        "同時に",
        -9.716218023879996
      ],
      [
        "仕様",
        -9.716319146149145
      ],
      [
        "貫",
        -9.71684276358093
      ],
      [
        "メートル",
        -9.717737329360341
      ],
      [
        "駅前",
        -9.71794542902151
      ],
      [
        "UN",
        -9.718197545747122
      ],
      [
        "au",
        -9.718755081488771
      ],
      [
        "したもの",
        -9.719083981644125
      ],
      [
        "ける",
        -9.71950033619457
      ],
      [
        "潮",
        -9.720586063462154
      ],
      [
        "安全",
        -9.720619962334716
      ],
      [
        "ブラック",
        -9.720891523458404
      ],
      [
        "基地",
        -9.721476364719326
      ],
      [
        "鹿",
        -9.721513489701168
      ],
      [
        "泰",
        -9.72171207231011
      ],
      [
        "ベイ",
        -9.722452577154957
      ],
      [
        "価",
        -9.722804628626365
      ],
      [
        "圏",
        -9.723508963416556
      ],
      [
        "力を",
        -9.723813143795972
      ],
      [
        "勝ち",
        -9.723941337029023
      ],
      [
        "佳",
        -9.724822976608639
      ],
      [
        "松本",
        -9.725351240584695
      ],
      [
        "理論",
        -9.725449521163016
      ],
      [
        "証",
        -9.72545638170417
      ],
      [
        "ビア",
        -9.725627699708093
      ],
      [
        "主張",
        -9.725977241731835
      ],
      [
        "1日",
        -9.72616020870649
      ],
      [
        "行為",
        -9.726282860206773
      ],
      [
        "be",
        -9.726750540522712
      ],
      [
        "のシングル",
        -9.728045876061884
      ],
      [
        "政権",
        -9.72830249804062
      ],
      [
        "奏",
        -9.728417359796492
      ],
      [
        "ho",
        -9.728563620143346
      ],
      [
        "元年",
        -9.72876485349145
      ],
      [
        "似",
        -9.72883648672525
      ],
      [
        "ピン",
        -9.730081101265512
      ],
      [
        "ry",
        -9.7301797945727
      ],
      [
        "合わせ",
        -9.730340905914986
      ],
      [
        "革命",
        -9.730901533267541
      ],
      [
        "1964年",
        -9.730976897918495
      ],
      [
        "接続",
        -9.731359425695286
      ],
      [
        "降",
        -9.731824209898758
      ],
      [
        "モード",
        -9.732018281573655
      ],
      [
        "1966年",
        -9.732513732451148
      ],
      [
        "仲間",
        -9.733001419122713
      ],
      [
        "翌年",
        -9.73393761065764
      ],
      [
        "混",
        -9.734736024842288
      ],
      [
        "までに",
        -9.73474625495669
      ],
      [
        "3回",
        -9.735830975239391
      ],
      [
        "投票",
        -9.736400403599582
      ],
      [
        "io",
        -9.73684534163636
      ],
      [
        "1965年",
        -9.7368642111251
      ],
      [
        "三郎",
        -9.737850516495344
      ],
      [
        "えて",
        -9.738124373067567
      ],
      [
        "厚",
        -9.739561295727007
      ],
      [
        "菜",
        -9.740247893554397
      ],
      [
        "が行われた",
        -9.74148329099771
      ],
      [
        "多く",
        -9.741535253787903
      ],
      [
        "学院",
        -9.74164118270485
      ],
      [
        "10月1日",
        -9.74177486545069
      ],
      [
        "日本人",
        -9.742044032275247
      ],
      [
        "オーストラリア",
        -9.742127338970738
      ],
      [
        "アメリカの",
        -9.742232174128421
      ],
      [
        "敬",
        -9.742692184457137
      ],
      [
        "敏",
        -9.742834598373848
      ],
      [
        "58",
        -9.743371157428621
      ],
      [
        "2号",
        -9.744130610827133
      ],
      [
        "ネス",
        -9.744176680644427
      ],
      [
        "としても",
        -9.744765580496138
      ],
      [
        "高等",
        -9.744947777734396
      ],
      [
        "畑",
        -9.745758466034948
      ],
      [
        "速度",
        -9.745943287342845
      ],
      [
        "なった",
        -9.745989120548902
      ],
      [
        "レット",
        -9.745990458087679
      ],
      [
        "拠点",
        -9.746094608810806
      ],
      [
        "沙",
        -9.746189541511523
      ],
      [
        "処理",
        -9.746511559144812
      ],
      [
        "に出演",
        -9.746867007956785
      ],
      [
        "つく",
        -9.747670465193728
      ],
      [
        "高速",
        -9.7478024982233
      ],
      [
        "散",
        -9.747846657753804
      ],
      [
        "建物",
        -9.748077318601041
      ],
      [
        "鳴",
        -9.74884347762242
      ],
      [
        "祐",
        -9.748919771276732
      ],
      [
        "第7",
        -9.749469356019048
      ],
      [
        "カリ",
        -9.750214025912385
      ],
      [
        "ti",
        -9.750332426983215
      ],
      [
        "営業所",
        -9.750530762503836
      ],
      [
        "08",
        -9.750932534949397
      ],
      [
        "20世紀",
        -9.751454536932359
      ],
      [
        "部長",
        -9.751681039963502
      ],
      [
        "たちの",
        -9.75192812516042
      ],
      [
        "06",
        -9.75194395479917
      ],
      [
        "万円",
        -9.752003692774316
      ],
      [
        "Ro",
        -9.752759717682194
      ],
      [
        "千葉県",
        -9.752788015445095
      ],
      [
        "迫",
        -9.75343143084417
      ],
      [
        "ig",
        -9.753591368981835
      ],
      [
        "打ち",
        -9.753631910523998
      ],
      [
        "米国",
        -9.753697492807051
      ],
      [
        "氷",
        -9.753827490692705
      ],
      [
        "めた",
        -9.754112773055848
      ],
      [
        "増加",
        -9.754475022386174
      ],
      [
        "ダンス",
        -9.754834317188438
      ],
      [
        "暴",
        -9.754838059241528
      ],
      [
        "レベル",
        -9.755490404704505
      ],
      [
        "筆",
        -9.755691566241481
      ],
      [
        "トラック",
        -9.755767468060714
      ],
      [
        "US",
        -9.755927517272927
      ],
      [
        "仮",
        -9.756214643088308
      ],
      [
        "弥",
        -9.756502152268746
      ],
      [
        "追加",
        -9.757027986061763
      ],
      [
        "コード",
        -9.757531255747997
      ],
      [
        "艦隊",
        -9.758371732446747
      ],
      [
        "史上",
        -9.758924493791554
      ],
      [
        "GO",
        -9.759205073374838
      ],
      [
        "Al",
        -9.759573788758663
      ],
      [
        "do",
        -9.75966172389304
      ],
      [
        "ピアノ",
        -9.760369163178595
      ],
      [
        "57",
        -9.760388217339587
      ],
      [
        "09",
        -9.760918648435238
      ],
      [
        "ist",
        -9.760978441589984
      ],
      [
        "65",
        -9.761905549627576
      ],
      [
        "規定",
        -9.76204845853543
      ],
      [
        "許",
        -9.762254089154156
      ],
      [
        "名を",
        -9.762583574390668
      ],
      [
        "はこの",
        -9.76343623240131
      ],
      [
        "てきた",
        -9.763529120297116
      ],
      [
        "400",
        -9.764570851352701
      ],
      [
        "ard",
        -9.764839016228665
      ],
      [
        "に就任",
        -9.765082767489002
      ],
      [
        "トレ",
        -9.765093463454876
      ],
      [
        "に位置する",
        -9.765389912151642
      ],
      [
        "と考え",
        -9.765400515632262
      ],
      [
        "づ",
        -9.76578095633384
      ],
      [
        "かり",
        -9.766164703888116
      ],
      [
        "塔",
        -9.766291735993027
      ],
      [
        "須",
        -9.766368214408354
      ],
      [
        "ラム",
        -9.766768494980031
      ],
      [
        "イングランド",
        -9.76691147277286
      ],
      [
        "42",
        -9.767506504609075
      ],
      [
        "条約",
        -9.768468716878235
      ],
      [
        "落ち",
        -9.76862761886095
      ],
      [
        "認定",
        -9.768767666903752
      ],
      [
        "05",
        -9.769164562931753
      ],
      [
        "咲",
        -9.769332575728008
      ],
      [
        "嘉",
        -9.769657086692831
      ],
      [
        "電車",
        -9.769663247658954
      ],
      [
        "乳",
        -9.769858457604636
      ],
      [
        "江戸時代",
        -9.770003798686297
      ],
      [
        "歴",
        -9.7711975865117
      ],
      [
        "著書",
        -9.77159418556544
      ],
      [
        "市内",
        -9.771792059410549
      ],
      [
        "選出",
        -9.771889338378603
      ],
      [
        "os",
        -9.772272263472512
      ],
      [
        "に入",
        -9.772303907389405
      ],
      [
        "ES",
        -9.773547839178029
      ],
      [
        "ci",
        -9.773912233982665
      ],
      [
        "あまり",
        -9.774135930522478
      ],
      [
        "生涯",
        -9.774562497796042
      ],
      [
        "近代",
        -9.774907117495575
      ],
      [
        "宗教",
        -9.77535722439932
      ],
      [
        "多数",
        -9.775479185051486
      ],
      [
        "主催",
        -9.776051474391723
      ],
      [
        "導",
        -9.776116514687402
      ],
      [
        "77",
        -9.776289425201144
      ],
      [
        "でき",
        -9.776611920585857
      ],
      [
        "焼",
        -9.776907055209335
      ],
      [
        "その他の",
        -9.777476853274147
      ],
      [
        "臣",
        -9.777752811077859
      ],
      [
        "交流",
        -9.778445462943377
      ],
      [
        "1945年",
        -9.778492938207282
      ],
      [
        "ve",
        -9.779651302526885
      ],
      [
        "法律",
        -9.779767375909316
      ],
      [
        "内閣",
        -9.77993981000464
      ],
      [
        "西部",
        -9.779951048362939
      ],
      [
        "毒",
        -9.780018724232722
      ],
      [
        "教師",
        -9.780265644164922
      ],
      [
        "を設立",
        -9.780285988124147
      ],
      [
        "されていない",
        -9.780528724249741
      ],
      [
        "導入",
        -9.780635994150591
      ],
      [
        "継",
        -9.782075788676494
      ],
      [
        "因",
        -9.782439278624983
      ],
      [
        "コーチ",
        -9.782767716454167
      ],
      [
        "改造",
        -9.782891374469708
      ],
      [
        "スタイル",
        -9.783050301735825
      ],
      [
        "飯",
        -9.78401583184646
      ],
      [
        "ラル",
        -9.784157699254022
      ],
      [
        "会員",
        -9.785105747766874
      ],
      [
        "色の",
        -9.78572108944863
      ],
      [
        "駒",
        -9.785728101648084
      ],
      [
        "PC",
        -9.786000092208264
      ],
      [
        "北部",
        -9.786595852970526
      ],
      [
        "ニング",
        -9.78666535629309
      ],
      [
        "空間",
        -9.786872173568572
      ],
      [
        "独",
        -9.78703500344092
      ],
      [
        "集団",
        -9.787123184238768
      ],
      [
        "しん",
        -9.787143405601437
      ],
      [
        "爆",
        -9.787266093601719
      ],
      [
        "隠",
        -9.787377579065515
      ],
      [
        "キュ",
        -9.787683481369848
      ],
      [
        "農業",
        -9.787742939678163
      ],
      [
        "第",
        -9.78808727057951
      ],
      [
        "稲",
        -9.788222156073973
      ],
      [
        "筋",
        -9.788310742969186
      ],
      [
        "プレー",
        -9.788751822862972
      ],
      [
        "作業",
        -9.7892538485118
      ],
      [
        "Be",
        -9.78940247287782
      ],
      [
        "振り",
        -9.789750999543566
      ],
      [
        "制御",
        -9.789947099839669
      ],
      [
        "荘",
        -9.789998504901211
      ],
      [
        "オール",
        -9.790388591744064
      ],
      [
        "地上",
        -9.790697314414087
      ],
      [
        "パラ",
        -9.790779388161274
      ],
      [
        "伯",
        -9.79094687092257
      ],
      [
        "アフリカ",
        -9.791161359684976
      ],
      [
        "ソロ",
        -9.791801263626791
      ],
      [
        "賢",
        -9.792054263072322
      ],
      [
        "乗り",
        -9.792343995408446
      ],
      [
        "那",
        -9.792821881712515
      ],
      [
        "害",
        -9.792926298230917
      ],
      [
        "していない",
        -9.793113330158917
      ],
      [
        "姉",
        -9.793197096437531
      ],
      [
        "まだ",
        -9.793602515654433
      ],
      [
        "成長",
        -9.794207886020677
      ],
      [
        "することで",
        -9.79422995442551
      ],
      [
        "ナイ",
        -9.794373408671884
      ],
      [
        "99",
        -9.794804348484629
      ],
      [
        "NO",
        -9.795108599224378
      ],
      [
        "主要",
        -9.796100695514529
      ],
      [
        "1955年",
        -9.796301860614026
      ],
      [
        "合い",
        -9.797008080733471
      ],
      [
        "開設",
        -9.797584427766575
      ],
      [
        "たか",
        -9.797826224407371
      ],
      [
        "主題歌",
        -9.79793519888099
      ],
      [
        "統一",
        -9.79821188838658
      ],
      [
        "禁",
        -9.798319198569295
      ],
      [
        "ワイ",
        -9.798678695345329
      ],
      [
        "フォード",
        -9.7989778675476
      ],
      [
        "吹",
        -9.799131120900205
      ],
      [
        "分離",
        -9.799401141353421
      ],
      [
        "しょう",
        -9.800037127685645
      ],
      [
        "PS",
        -9.800531421878631
      ],
      [
        "デス",
        -9.801326116033843
      ],
      [
        "唐",
        -9.801431541032684
      ],
      [
        "捜査",
        -9.801507103441056
      ],
      [
        "テーマ",
        -9.801651566966827
      ],
      [
        "ウル",
        -9.801745506189764
      ],
      [
        "エリア",
        -9.801828550051999
      ],
      [
        "各地",
        -9.802482858392047
      ],
      [
        "1963年",
        -9.80252787330499
      ],
      [
        "1960年",
        -9.802624769061783
      ],
      [
        "滅",
        -9.803047769760282
      ],
      [
        "待",
        -9.803422007428596
      ],
      [
        "作成",
        -9.803625322719084
      ],
      [
        "メル",
        -9.804241478195422
      ],
      [
        "1人",
        -9.804339187689399
      ],
      [
        "Vol",
        -9.804367431606273
      ],
      [
        "去",
        -9.804738575305883
      ],
      [
        "時には",
        -9.804934330839352
      ],
      [
        "キャスト",
        -9.805179533481523
      ],
      [
        "ING",
        -9.805685681413598
      ],
      [
        "勇",
        -9.80569353786125
      ],
      [
        "駐",
        -9.806065435705293
      ],
      [
        "たが",
        -9.806297560691139
      ],
      [
        "未来",
        -9.806305249889387
      ],
      [
        "念",
        -9.8063136166714
      ],
      [
        "通称",
        -9.806530688021304
      ],
      [
        "失敗",
        -9.806535909668513
      ],
      [
        "競馬",
        -9.80664651286402
      ],
      [
        "にあたる",
        -9.806787033423664
      ],
      [
        "mi",
        -9.80729900828291
      ],
      [
        "桃",
        -9.807669336093555
      ],
      [
        "渡辺",
        -9.808120625111691
      ],
      [
        "出した",
        -9.808486443383929
      ],
      [
        "可能性",
        -9.808616796005609
      ],
      [
        "分野",
        -9.808721448783226
      ],
      [
        "HO",
        -9.808794431070671
      ],
      [
        "李",
        -9.808883771834056
      ],
      [
        "土地",
        -9.809071999713073
      ],
      [
        "牧",
        -9.809355826392165
      ],
      [
        "加藤",
        -9.809849581235706
      ],
      [
        "カバー",
        -9.810334127136674
      ],
      [
        "ウィン",
        -9.811844813935684
      ],
      [
        "がない",
        -9.811868142339197
      ],
      [
        "創設",
        -9.812096200289908
      ],
      [
        "アンド",
        -9.81225242893107
      ],
      [
        "途中",
        -9.812632559540322
      ],
      [
        "にして",
        -9.814046489070623
      ],
      [
        "強化",
        -9.814640812043002
      ],
      [
        "ヒット",
        -9.815256044856717
      ],
      [
        "眼",
        -9.815410384899145
      ],
      [
        "に登場する",
        -9.815441645438439
      ],
      [
        "マス",
        -9.815565821469818
      ],
      [
        "沖縄",
        -9.81578448213057
      ],
      [
        "照",
        -9.815913898562773
      ],
      [
        "画家",
        -9.816440173474767
      ],
      [
        "幼",
        -9.816475673750917
      ],
      [
        "時代に",
        -9.816658905452641
      ],
      [
        "参戦",
        -9.817015596335038
      ],
      [
        "To",
        -9.817321599769604
      ],
      [
        "ウン",
        -9.817611802651323
      ],
      [
        "商業",
        -9.817612686476599
      ],
      [
        "程度",
        -9.817760126204211
      ],
      [
        "停止",
        -9.817782081481651
      ],
      [
        "ni",
        -9.818141670386034
      ],
      [
        "児童",
        -9.818417147629122
      ],
      [
        "Me",
        -9.818527730969787
      ],
      [
        "パス",
        -9.81854325087856
      ],
      [
        "ネル",
        -9.818810885617305
      ],
      [
        "委員",
        -9.819109346935937
      ],
      [
        "04",
        -9.81966659152344
      ],
      [
        "住宅",
        -9.819720818281155
      ],
      [
        "保険",
        -9.819826467799901
      ],
      [
        "を発表",
        -9.819878679821189
      ],
      [
        "コル",
        -9.819927041228457
      ],
      [
        "ac",
        -9.821352774384307
      ],
      [
        "解散",
        -9.821432629006702
      ],
      [
        "舎",
        -9.821635914259573
      ],
      [
        "専",
        -9.822039062485562
      ],
      [
        "網",
        -9.822231348431131
      ],
      [
        "セント",
        -9.822348895200673
      ],
      [
        "面積",
        -9.822675471846207
      ],
      [
        "止め",
        -9.822682015584967
      ],
      [
        "カメラ",
        -9.823036260005715
      ],
      [
        "を務める",
        -9.823098073268282
      ],
      [
        "を担当",
        -9.82310877402162
      ],
      [
        "が多く",
        -9.82341086814787
      ],
      [
        "約1",
        -9.82387885145396
      ],
      [
        "タウン",
        -9.823958066282076
      ],
      [
        "民族",
        -9.82441101081704
      ],
      [
        "床",
        -9.824647259360514
      ],
      [
        "相手",
        -9.824669910981259
      ],
      [
        "ess",
        -9.824843194840115
      ],
      [
        "芳",
        -9.825328577792588
      ],
      [
        "投手",
        -9.82540097474634
      ],
      [
        "いずれも",
        -9.82540758199243
      ],
      [
        "決勝",
        -9.825764434504043
      ],
      [
        "書籍",
        -9.825917834266487
      ],
      [
        "ショ",
        -9.826114130191904
      ],
      [
        "さい",
        -9.827245143105129
      ],
      [
        "ことに",
        -9.827574865492679
      ],
      [
        "ニン",
        -9.827643149476437
      ],
      [
        "フィー",
        -9.8280245836712
      ],
      [
        "son",
        -9.828127569964153
      ],
      [
        "尊",
        -9.828431730716963
      ],
      [
        "復",
        -9.828788169536024
      ],
      [
        "展示",
        -9.828815314580714
      ],
      [
        "成功",
        -9.829343627263032
      ],
      [
        "しゃ",
        -9.829461975576278
      ],
      [
        "歴代",
        -9.829533307805159
      ],
      [
        "ナル",
        -9.829865203412913
      ],
      [
        "アウト",
        -9.829920547906449
      ],
      [
        "奇",
        -9.829956250671266
      ],
      [
        "まった",
        -9.830496793018156
      ],
      [
        "1962年",
        -9.830596363372134
      ],
      [
        "述",
        -9.831039548759005
      ],
      [
        "規模",
        -9.831246767443602
      ],
      [
        "寛",
        -9.831341608386293
      ],
      [
        "航",
        -9.831504417151821
      ],
      [
        "宣",
        -9.831519512604483
      ],
      [
        "障害",
        -9.832653879919986
      ],
      [
        "られていた",
        -9.832862001730222
      ],
      [
        "呼び",
        -9.833387599716504
      ],
      [
        "同社",
        -9.834349492725439
      ],
      [
        "地震",
        -9.834398471482697
      ],
      [
        "地下",
        -9.834402664527186
      ],
      [
        "ことができる",
        -9.834434476972259
      ],
      [
        "フランスの",
        -9.834729503832422
      ],
      [
        "マリ",
        -9.83486593685282
      ],
      [
        "背",
        -9.834881944528247
      ],
      [
        "em",
        -9.834936906299475
      ],
      [
        "ot",
        -9.835278481174898
      ],
      [
        "至",
        -9.835710538000308
      ],
      [
        "突",
        -9.835992035338032
      ],
      [
        "パワー",
        -9.836188520749056
      ],
      [
        "著作",
        -9.836280908419985
      ],
      [
        "軸",
        -9.836397706539119
      ],
      [
        "ウォー",
        -9.836502244884294
      ],
      [
        "AC",
        -9.836682928644207
      ],
      [
        "52",
        -9.836742335737757
      ],
      [
        "犯",
        -9.837703236431988
      ],
      [
        "ag",
        -9.837959538802517
      ],
      [
        "53",
        -9.837980598627137
      ],
      [
        "対策",
        -9.838115555596882
      ],
      [
        "共演",
        -9.838440632572599
      ],
      [
        "02",
        -9.838947996547402
      ],
      [
        "の一人",
        -9.839082447518429
      ],
      [
        "プレイヤー",
        -9.839106863031033
      ],
      [
        "読み",
        -9.839127650975158
      ],
      [
        "76",
        -9.839204236729335
      ],
      [
        "栗",
        -9.839511349998952
      ],
      [
        "ゴール",
        -9.840253138745913
      ],
      [
        "候補",
        -9.840578893577897
      ],
      [
        "郵便局",
        -9.840737534774473
      ],
      [
        "国道",
        -9.841022504990505
      ],
      [
        "オランダ",
        -9.841074934437476
      ],
      [
        "秘",
        -9.841118604311212
      ],
      [
        "チョ",
        -9.84114341528683
      ],
      [
        "願",
        -9.841304227589978
      ],
      [
        "ha",
        -9.841689905643205
      ],
      [
        "家庭",
        -9.841939331860885
      ],
      [
        "負",
        -9.84200876118283
      ],
      [
        "エピソード",
        -9.842160007628827
      ],
      [
        "の間",
        -9.84238396660436
      ],
      [
        "ポン",
        -9.843149765014116
      ],
      [
        "経由",
        -9.843879638645983
      ],
      [
        "新たな",
        -9.843984135202248
      ],
      [
        "SH",
        -9.844862922600393
      ],
      [
        "構",
        -9.844889145942343
      ],
      [
        "の鉄道駅",
        -9.845442630761989
      ],
      [
        "身長",
        -9.845495364869858
      ],
      [
        "1961年",
        -9.845581137592628
      ],
      [
        "シル",
        -9.845590095892758
      ],
      [
        "85",
        -9.846076610496732
      ],
      [
        "ph",
        -9.847384467462243
      ],
      [
        "万人",
        -9.847666367674918
      ],
      [
        "州の",
        -9.847819680171366
      ],
      [
        "チュー",
        -9.848394101792522
      ],
      [
        "ゴン",
        -9.84893703412581
      ],
      [
        "IS",
        -9.849112606613666
      ],
      [
        "軌道",
        -9.849231323679161
      ],
      [
        "67",
        -9.849427971757136
      ],
      [
        "ソング",
        -9.849456531349336
      ],
      [
        "が必要",
        -9.8495234787113
      ],
      [
        "市長",
        -9.849563921815417
      ],
      [
        "スタート",
        -9.849622631142145
      ],
      [
        "Se",
        -9.84967103897375
      ],
      [
        "反応",
        -9.84986315651916
      ],
      [
        "一度",
        -9.849863440919915
      ],
      [
        "二人",
        -9.849892908395127
      ],
      [
        "美術館",
        -9.850567883992593
      ],
      [
        "配置",
        -9.851462040668688
      ],
      [
        "41",
        -9.85149411632059
      ],
      [
        "人々",
        -9.851589400010978
      ],
      [
        "第8",
        -9.85193999796122
      ],
      [
        "はその",
        -9.852400799706924
      ],
      [
        "ていたが",
        -9.852614722935034
      ],
      [
        "グリーン",
        -9.852665820290785
      ],
      [
        "施行",
        -9.853124926796776
      ],
      [
        "kg",
        -9.854121739933559
      ],
      [
        "2010",
        -9.854930885050452
      ],
      [
        "電話",
        -9.85517266979261
      ],
      [
        "などに",
        -9.855194835290783
      ],
      [
        "組合",
        -9.855489826960165
      ],
      [
        "快",
        -9.855666676037954
      ],
      [
        "2つの",
        -9.855757316999373
      ],
      [
        "よし",
        -9.85585088167461
      ],
      [
        "写",
        -9.855988854524714
      ],
      [
        "部の",
        -9.856170141833026
      ],
      [
        "が可能",
        -9.856233097665207
      ],
      [
        "支店",
        -9.856860496321271
      ],
      [
        "まれ",
        -9.856876843749182
      ],
      [
        "狭",
        -9.856882698619764
      ],
      [
        "王座",
        -9.857465784327452
      ],
      [
        "次の",
        -9.85771583872245
      ],
      [
        "Ar",
        -9.8579821451472
      ],
      [
        "捕",
        -9.858083896499192
      ],
      [
        "んでいた",
        -9.858791275988636
      ],
      [
        "制限",
        -9.859086168841285
      ],
      [
        "重要な",
        -9.859352766425612
      ],
      [
        "Con",
        -9.860378151438518
      ],
      [
        "クー",
        -9.86040029877911
      ],
      [
        "続け",
        -9.86094600228696
      ],
      [
        "自身",
        -9.86106100869207
      ],
      [
        "庄",
        -9.861297998891452
      ],
      [
        "を設置",
        -9.861311095778358
      ],
      [
        "結成",
        -9.861822385624727
      ],
      [
        "レオ",
        -9.862298271242203
      ],
      [
        "略歴",
        -9.86258030208341
      ],
      [
        "うち",
        -9.86346745192646
      ],
      [
        "校舎",
        -9.864567452272953
      ],
      [
        "プログラム",
        -9.864692883153138
      ],
      [
        "he",
        -9.86518968518392
      ],
      [
        "4回",
        -9.866288302414294
      ],
      [
        "種類",
        -9.86643528148143
      ],
      [
        "03",
        -9.866497259376548
      ],
      [
        "定義",
        -9.866589735417037
      ],
      [
        "黄",
        -9.867002403419857
      ],
      [
        "マク",
        -9.86793087938691
      ],
      [
        "会場",
        -9.867938355283862
      ],
      [
        "探",
        -9.868003619782222
      ],
      [
        "LIVE",
        -9.868265242458937
      ],
      [
        "の中",
        -9.869134742973097
      ],
      [
        "ers",
        -9.86986028666351
      ],
      [
        "ab",
        -9.869910772462074
      ],
      [
        "基準",
        -9.870544876381429
      ],
      [
        "夕",
        -9.871476320071077
      ],
      [
        "吾",
        -9.871828782564487
      ],
      [
        "例えば",
        -9.872150928842181
      ],
      [
        "ポート",
        -9.872216501848095
      ],
      [
        "虫",
        -9.872236308617568
      ],
      [
        "充",
        -9.872349454845136
      ],
      [
        "ランキング",
        -9.872377384375579
      ],
      [
        "腹",
        -9.873077153260953
      ],
      [
        "の影響",
        -9.873178899821456
      ],
      [
        "川崎",
        -9.873335228133863
      ],
      [
        "ウェ",
        -9.873736201450905
      ],
      [
        "浪",
        -9.873869306663252
      ],
      [
        "ge",
        -9.87431640061127
      ],
      [
        "アーティスト",
        -9.874706830882563
      ],
      [
        "のお",
        -9.874717955132798
      ],
      [
        "の名",
        -9.874811485653513
      ],
      [
        "とその",
        -9.875291806172646
      ],
      [
        "ジョー",
        -9.87561581003696
      ],
      [
        "51",
        -9.875988739869845
      ],
      [
        "2014",
        -9.876760405412014
      ],
      [
        "峰",
        -9.877376714779494
      ],
      [
        "レッ",
        -9.877740964759369
      ],
      [
        "挙",
        -9.878000390630866
      ],
      [
        "MC",
        -9.878773380638627
      ],
      [
        "2世",
        -9.87921012514398
      ],
      [
        "支持",
        -9.879870209520728
      ],
      [
        "中心",
        -9.880052952396904
      ],
      [
        "ディア",
        -9.88040712113027
      ],
      [
        "継続",
        -9.88052134852185
      ],
      [
        "2013",
        -9.880814687225467
      ],
      [
        "ネー",
        -9.882202627648947
      ],
      [
        "猫",
        -9.882232289376542
      ],
      [
        "がいる",
        -9.882871845677833
      ],
      [
        "幹",
        -9.882945050855522
      ],
      [
        "協",
        -9.883180250347234
      ],
      [
        "僕",
        -9.88352625155238
      ],
      [
        "の研究",
        -9.883647020547146
      ],
      [
        "母親",
        -9.88441803207495
      ],
      [
        "pe",
        -9.884595522408457
      ],
      [
        "1959年",
        -9.884678806901134
      ],
      [
        "治療",
        -9.885082306113235
      ],
      [
        "3月31日",
        -9.885201543067538
      ],
      [
        "静岡県",
        -9.885883570705795
      ],
      [
        "推進",
        -9.885968188574104
      ],
      [
        "処",
        -9.886076904576504
      ],
      [
        "共通",
        -9.886716615457845
      ],
      [
        "78",
        -9.887179406702783
      ],
      [
        "監",
        -9.887373235665681
      ],
      [
        "仙台",
        -9.887565057568871
      ],
      [
        "策",
        -9.887681026585389
      ],
      [
        "アリ",
        -9.887999100491053
      ],
      [
        "たま",
        -9.888117826207683
      ],
      [
        "助け",
        -9.888343614626887
      ],
      [
        "2012",
        -9.888609899518737
      ],
      [
        "コミック",
        -9.888756681896444
      ],
      [
        "あった",
        -9.888831513727633
      ],
      [
        "市町村",
        -9.889310318144497
      ],
      [
        "マスター",
        -9.889381055420298
      ],
      [
        "2015",
        -9.889499810882446
      ],
      [
        "就",
        -9.890235303437034
      ],
      [
        "駅間",
        -9.890342699854727
      ],
      [
        "ヴォ",
        -9.890573825234242
      ],
      [
        "ンズ",
        -9.890613032887927
      ],
      [
        "知事",
        -9.890933203572716
      ],
      [
        "ドイツの",
        -9.89149737047722
      ],
      [
        "交換",
        -9.89239677497324
      ],
      [
        "所有",
        -9.892627836481182
      ],
      [
        "系の",
        -9.89310443429783
      ],
      [
        "書店",
        -9.89325990530453
      ],
      [
        "だい",
        -9.893402647370724
      ],
      [
        "墓",
        -9.893710652987933
      ],
      [
        "長い",
        -9.89454853326589
      ],
      [
        "ョ",
        -9.894786689417108
      ],
      [
        "66",
        -9.895047868652291
      ],
      [
        "本作",
        -9.895122576048795
      ],
      [
        "わる",
        -9.895830415364474
      ],
      [
        "長崎",
        -9.895961295564053
      ],
      [
        "聴",
        -9.89649253577987
      ],
      [
        "プロデュース",
        -9.89652950204047
      ],
      [
        "インターネット",
        -9.89661869574779
      ],
      [
        "貨物",
        -9.896804690715049
      ],
      [
        "ant",
        -9.896869676580767
      ],
      [
        "1947年",
        -9.897152469363876
      ],
      [
        "に改称",
        -9.897219604923965
      ],
      [
        "派遣",
        -9.897566011612339
      ],
      [
        "をしている",
        -9.89856814052431
      ],
      [
        "特殊",
        -9.898568515145783
      ],
      [
        "することを",
        -9.898964362195807
      ],
      [
        "動画",
        -9.899070780367655
      ],
      [
        "検",
        -9.899478821333906
      ],
      [
        "ED",
        -9.899698460641334
      ],
      [
        "灯",
        -9.900475981104664
      ],
      [
        "タレント",
        -9.901431891390159
      ],
      [
        "臨",
        -9.901494109453386
      ],
      [
        "ミル",
        -9.902228442005697
      ],
      [
        "移転",
        -9.902559629545985
      ],
      [
        "2008",
        -9.904973234115653
      ],
      [
        "訓練",
        -9.905550223464834
      ],
      [
        "BE",
        -9.90562157477592
      ],
      [
        "時は",
        -9.905724794611592
      ],
      [
        "2011",
        -9.905746776040953
      ],
      [
        "1954年",
        -9.905787252245588
      ],
      [
        "ことが多い",
        -9.90647658606089
      ],
      [
        "井上",
        -9.906736507856648
      ],
      [
        "SC",
        -9.906834161313665
      ],
      [
        "コール",
        -9.907514142821135
      ],
      [
        "New",
        -9.907672126982044
      ],
      [
        "コンピュータ",
        -9.908006082248736
      ],
      [
        "2016",
        -9.908378602163442
      ],
      [
        "制定",
        -9.909382366634416
      ],
      [
        "88",
        -9.909562748042996
      ],
      [
        "ブルク",
        -9.910131777866232
      ],
      [
        "せる",
        -9.91014126015991
      ],
      [
        "ラブ",
        -9.910370139883176
      ],
      [
        "LO",
        -9.910654022461024
      ],
      [
        "紀元前",
        -9.9113197441832
      ],
      [
        "込む",
        -9.911955252563551
      ],
      [
        "笠",
        -9.912410005525649
      ],
      [
        "死亡",
        -9.91262833330129
      ],
      [
        "の子",
        -9.912792333155807
      ],
      [
        "セー",
        -9.913273868452663
      ],
      [
        "限り",
        -9.91401359733104
      ],
      [
        "ドリ",
        -9.914115742692488
      ],
      [
        "われた",
        -9.914567572901046
      ],
      [
        "盗",
        -9.914604982406388
      ],
      [
        "福岡県",
        -9.914637888828777
      ],
      [
        "2009",
        -9.91477166756927
      ],
      [
        "大陸",
        -9.915195112453885
      ],
      [
        "卒業後",
        -9.915345956965352
      ],
      [
        "少ない",
        -9.915372195012356
      ],
      [
        "購入",
        -9.915612937086077
      ],
      [
        "要素",
        -9.916077986270235
      ],
      [
        "操作",
        -9.91633404343256
      ],
      [
        "育",
        -9.916657607701593
      ],
      [
        "扱い",
        -9.916711982201665
      ],
      [
        "イヤー",
        -9.916950345782585
      ],
      [
        "そこで",
        -9.916988624330157
      ],
      [
        "全員",
        -9.91784522450193
      ],
      [
        "来た",
        -9.917863611358069
      ],
      [
        "ボス",
        -9.91787800353754
      ],
      [
        "1956年",
        -9.91824078456649
      ],
      [
        "紫",
        -9.91918693610011
      ],
      [
        "テー",
        -9.919346382190508
      ],
      [
        "DA",
        -9.91938843697787
      ],
      [
        "参照",
        -9.919920785696961
      ],
      [
        "ドラゴン",
        -9.919959578809703
      ],
      [
        "談",
        -9.920363589372293
      ],
      [
        "トム",
        -9.920867648203094
      ],
      [
        "の元",
        -9.920963842227929
      ],
      [
        "集め",
        -9.921766665623617
      ],
      [
        "欧州",
        -9.922010824176736
      ],
      [
        "のもの",
        -9.922152858325823
      ],
      [
        "サイド",
        -9.922309130193636
      ],
      [
        "ff",
        -9.922568272305526
      ],
      [
        "AM",
        -9.922970390742975
      ],
      [
        "際に",
        -9.92309793730544
      ],
      [
        "07",
        -9.923245115177645
      ],
      [
        "のメンバー",
        -9.923391151703575
      ],
      [
        "法人",
        -9.923683828609201
      ],
      [
        "封",
        -9.923729606589765
      ],
      [
        "アート",
        -9.923735594904082
      ],
      [
        "意識",
        -9.923803752790883
      ],
      [
        "一部の",
        -9.923843310646886
      ],
      [
        "穴",
        -9.92387159940092
      ],
      [
        "東部",
        -9.924197447231943
      ],
      [
        "果",
        -9.924433562064028
      ],
      [
        "であること",
        -9.925400846187411
      ],
      [
        "per",
        -9.925526184628952
      ],
      [
        "譲",
        -9.926094715567938
      ],
      [
        "推",
        -9.926347826147317
      ],
      [
        "ian",
        -9.92638837631314
      ],
      [
        "1958年",
        -9.926984494101935
      ],
      [
        "2007",
        -9.927107429662424
      ],
      [
        "同盟",
        -9.927424709530408
      ],
      [
        "伊勢",
        -9.927473089962653
      ],
      [
        "あい",
        -9.927820049377516
      ],
      [
        "洗",
        -9.928289198010932
      ],
      [
        "思想",
        -9.928889734210086
      ],
      [
        "電力",
        -9.928914417145288
      ],
      [
        "体制",
        -9.9292859494539
      ],
      [
        "医師",
        -9.929435726538484
      ],
      [
        "広く",
        -9.929540234019601
      ],
      [
        "大字",
        -9.929780162141766
      ],
      [
        "なん",
        -9.930086513305254
      ],
      [
        "玄",
        -9.930192800199992
      ],
      [
        "カス",
        -9.93025226674544
      ],
      [
        "ポール",
        -9.930305146228038
      ],
      [
        "首相",
        -9.930721072211133
      ],
      [
        "ぞ",
        -9.930757512136276
      ],
      [
        "仙",
        -9.930766036181081
      ],
      [
        "側の",
        -9.93146502395657
      ],
      [
        "宣言",
        -9.931551447676108
      ],
      [
        "禁止",
        -9.931595217362016
      ],
      [
        "ダル",
        -9.931644453478398
      ],
      [
        "試",
        -9.931691963810975
      ],
      [
        "ベルト",
        -9.931723453312562
      ],
      [
        "陰",
        -9.932293833820198
      ],
      [
        "新人",
        -9.932328191187615
      ],
      [
        "福島",
        -9.932370582268756
      ],
      [
        "疑",
        -9.932668007867187
      ],
      [
        "原因",
        -9.932862206140097
      ],
      [
        "フラン",
        -9.933135477163196
      ],
      [
        "方向",
        -9.933228263097085
      ],
      [
        "TE",
        -9.933796833408675
      ],
      [
        "妹",
        -9.933898172794526
      ],
      [
        "バトル",
        -9.93396595098177
      ],
      [
        "河川",
        -9.934303243155046
      ],
      [
        "田村",
        -9.934606044854585
      ],
      [
        "録音",
        -9.934686710650714
      ],
      [
        "DO",
        -9.935097269879467
      ],
      [
        "文書",
        -9.935157779545346
      ],
      [
        "大阪市",
        -9.93611066150897
      ],
      [
        "共に",
        -9.936305229185399
      ],
      [
        "作曲家",
        -9.936403674790544
      ],
      [
        "ヤン",
        -9.936459091408059
      ],
      [
        "63",
        -9.936684302321074
      ],
      [
        "億",
        -9.937011817958696
      ],
      [
        "ベー",
        -9.937255172055238
      ],
      [
        "移籍",
        -9.937564080026561
      ],
      [
        "ガイ",
        -9.937600258201428
      ],
      [
        "ケル",
        -9.937613988327612
      ],
      [
        "1世",
        -9.937630108438434
      ],
      [
        "連絡",
        -9.938263506118393
      ],
      [
        "採",
        -9.938442832025938
      ],
      [
        "our",
        -9.938642883353127
      ],
      [
        "のか",
        -9.939254986378488
      ],
      [
        "ミス",
        -9.939417547620257
      ],
      [
        "観測",
        -9.93982840980889
      ],
      [
        "渋谷",
        -9.939919627496554
      ],
      [
        "息子",
        -9.94000995496069
      ],
      [
        "した後",
        -9.940521530821854
      ],
      [
        "長野県",
        -9.940819422761987
      ],
      [
        "79",
        -9.9411500726007
      ],
      [
        "の名前",
        -9.941587567406017
      ],
      [
        "深夜",
        -9.941866177120048
      ],
      [
        "第二次世界大戦",
        -9.942169272024453
      ],
      [
        "全ての",
        -9.942227841072238
      ],
      [
        "グランプリ",
        -9.942894318773094
      ],
      [
        "意味",
        -9.942972313878478
      ],
      [
        "コンサート",
        -9.943500652539646
      ],
      [
        "機器",
        -9.944410648117785
      ],
      [
        "ポリ",
        -9.94443769300654
      ],
      [
        "ネットワーク",
        -9.945076724625824
      ],
      [
        "ジュニア",
        -9.94509822503626
      ],
      [
        "とされている",
        -9.94543865096433
      ],
      [
        "を果たした",
        -9.945595829434032
      ],
      [
        "平和",
        -9.946439077288533
      ],
      [
        "62",
        -9.94652724205359
      ],
      [
        "単位",
        -9.947181551989548
      ],
      [
        "の手",
        -9.947299981111804
      ],
      [
        "替",
        -9.947324847641365
      ],
      [
        "コス",
        -9.94749387023035
      ],
      [
        "da",
        -9.947609083063552
      ],
      [
        "2006",
        -9.947902662015522
      ],
      [
        "化した",
        -9.947925023435392
      ],
      [
        "続く",
        -9.948055026678432
      ],
      [
        "綱",
        -9.949034330553454
      ],
      [
        "に入る",
        -9.949257433016221
      ],
      [
        "敷",
        -9.949529455993018
      ],
      [
        "180",
        -9.949707732945022
      ],
      [
        "ca",
        -9.949808930626828
      ],
      [
        "86",
        -9.949913180572874
      ],
      [
        "沖",
        -9.950077597459899
      ],
      [
        "上に",
        -9.950120012488558
      ],
      [
        "健康",
        -9.950904375987365
      ],
      [
        "オリ",
        -9.95115101714029
      ],
      [
        "してきた",
        -9.952314219054358
      ],
      [
        "ことになる",
        -9.952611310442757
      ],
      [
        "ヒル",
        -9.952695533319474
      ],
      [
        "フィールド",
        -9.953369899248933
      ],
      [
        "朗",
        -9.954348395103366
      ],
      [
        "の映画",
        -9.954375447366274
      ],
      [
        "生命",
        -9.95464868209934
      ],
      [
        "球団",
        -9.95468857918137
      ],
      [
        "ハル",
        -9.954728734170732
      ],
      [
        "翻訳",
        -9.954906931367923
      ],
      [
        "機体",
        -9.95506470318517
      ],
      [
        "指摘",
        -9.955536099583044
      ],
      [
        "犯罪",
        -9.955573508710117
      ],
      [
        "となって",
        -9.956971890742583
      ],
      [
        "3号",
        -9.957108517066548
      ],
      [
        "かなり",
        -9.957426641498207
      ],
      [
        "投げ",
        -9.957796914642469
      ],
      [
        "の世界",
        -9.958056535016398
      ],
      [
        "ドロ",
        -9.958063206413755
      ],
      [
        "範囲",
        -9.95864382483232
      ],
      [
        "リック",
        -9.95920137881009
      ],
      [
        "ほう",
        -9.95941915433076
      ],
      [
        "過去の",
        -9.959424661494197
      ],
      [
        "世代",
        -9.95981250528783
      ],
      [
        "嶋",
        -9.95986540031082
      ],
      [
        "中止",
        -9.960140661758352
      ],
      [
        "ボーカル",
        -9.960226645187596
      ],
      [
        "テレビアニメ",
        -9.96057433331244
      ],
      [
        "向上",
        -9.961022422828275
      ],
      [
        "眠",
        -9.961468329928673
      ],
      [
        "資格",
        -9.961769940977442
      ],
      [
        "保存",
        -9.96271162554487
      ],
      [
        "ゼン",
        -9.9629093603094
      ],
      [
        "通算",
        -9.963072052477807
      ],
      [
        "改正",
        -9.963116949302899
      ],
      [
        "及",
        -9.96322171013917
      ],
      [
        "町立",
        -9.963238275146658
      ],
      [
        "スクール",
        -9.963386260196804
      ],
      [
        "季",
        -9.963657925378905
      ],
      [
        "おお",
        -9.963696531840036
      ],
      [
        "型の",
        -9.96382281998859
      ],
      [
        "ru",
        -9.964178344304655
      ],
      [
        "程",
        -9.964699383264294
      ],
      [
        "丹",
        -9.96498124736484
      ],
      [
        "誕生",
        -9.965373099783413
      ],
      [
        "藤原",
        -9.965990961096528
      ],
      [
        "動き",
        -9.966235364768703
      ],
      [
        "換",
        -9.967229429357214
      ],
      [
        "停車",
        -9.967517057956261
      ],
      [
        "ごと",
        -9.967601421402337
      ],
      [
        "誤",
        -9.96802264839845
      ],
      [
        "res",
        -9.968242655131087
      ],
      [
        "リーダー",
        -9.96870257813795
      ],
      [
        "周囲",
        -9.968979527540771
      ],
      [
        "2017",
        -9.9689898300854
      ],
      [
        "を行っている",
[...]
